{
  "version": "1.0",
  "truncation": null,
  "padding": null,
  "added_tokens": [
    {
      "id": 0,
      "content": "[PAD]",
      "single_word": false,
      "lstrip": false,
      "rstrip": false,
      "normalized": false,
      "special": true
    },
    {
      "id": 1,
      "content": "[UNK]",
      "single_word": false,
      "lstrip": false,
      "rstrip": false,
      "normalized": false,
      "special": true
    },
    {
      "id": 2,
      "content": "[CLS]",
      "single_word": false,
      "lstrip": false,
      "rstrip": false,
      "normalized": false,
      "special": true
    },
    {
      "id": 3,
      "content": "[SEP]",
      "single_word": false,
      "lstrip": false,
      "rstrip": false,
      "normalized": false,
      "special": true
    },
    {
      "id": 4,
      "content": "[MASK]",
      "single_word": false,
      "lstrip": false,
      "rstrip": false,
      "normalized": false,
      "special": true
    },
    {
      "id": 5,
      "content": "<bos>",
      "single_word": false,
      "lstrip": false,
      "rstrip": false,
      "normalized": false,
      "special": true
    },
    {
      "id": 6,
      "content": "<eos>",
      "single_word": false,
      "lstrip": false,
      "rstrip": false,
      "normalized": false,
      "special": true
    }
  ],
  "normalizer": {
    "type": "Sequence",
    "normalizers": [
      {
        "type": "NFD"
      },
      {
        "type": "Lowercase"
      },
      {
        "type": "StripAccents"
      }
    ]
  },
  "pre_tokenizer": {
    "type": "Whitespace"
  },
  "post_processor": null,
  "decoder": null,
  "model": {
    "type": "WordPiece",
    "unk_token": "[UNK]",
    "continuing_subword_prefix": "##",
    "max_input_chars_per_word": 100,
    "vocab": {
      "[PAD]": 0,
      "[UNK]": 1,
      "[CLS]": 2,
      "[SEP]": 3,
      "[MASK]": 4,
      "<bos>": 5,
      "<eos>": 6,
      "!": 7,
      "\"": 8,
      "#": 9,
      "$": 10,
      "%": 11,
      "&": 12,
      "'": 13,
      "(": 14,
      ")": 15,
      "*": 16,
      "+": 17,
      ",": 18,
      "-": 19,
      ".": 20,
      "/": 21,
      "0": 22,
      "1": 23,
      "2": 24,
      "3": 25,
      "4": 26,
      "5": 27,
      "6": 28,
      "7": 29,
      "8": 30,
      "9": 31,
      ":": 32,
      ";": 33,
      "<": 34,
      "=": 35,
      ">": 36,
      "?": 37,
      "@": 38,
      "[": 39,
      "\\": 40,
      "]": 41,
      "_": 42,
      "`": 43,
      "a": 44,
      "b": 45,
      "c": 46,
      "d": 47,
      "e": 48,
      "f": 49,
      "g": 50,
      "h": 51,
      "i": 52,
      "j": 53,
      "k": 54,
      "l": 55,
      "m": 56,
      "n": 57,
      "o": 58,
      "p": 59,
      "q": 60,
      "r": 61,
      "s": 62,
      "t": 63,
      "u": 64,
      "v": 65,
      "w": 66,
      "x": 67,
      "y": 68,
      "z": 69,
      "{": 70,
      "|": 71,
      "}": 72,
      "~": 73,
      "¡": 74,
      "¢": 75,
      "£": 76,
      "¤": 77,
      "¥": 78,
      "¦": 79,
      "§": 80,
      "¨": 81,
      "©": 82,
      "ª": 83,
      "«": 84,
      "¬": 85,
      "­": 86,
      "®": 87,
      "¯": 88,
      "°": 89,
      "±": 90,
      "²": 91,
      "³": 92,
      "´": 93,
      "µ": 94,
      "¶": 95,
      "·": 96,
      "¸": 97,
      "¹": 98,
      "º": 99,
      "»": 100,
      "¼": 101,
      "½": 102,
      "¾": 103,
      "¿": 104,
      "æ": 105,
      "ð": 106,
      "œ": 107,
      "ƒ": 108,
      "ˆ": 109,
      "˜": 110,
      "–": 111,
      "‘": 112,
      "’": 113,
      "‚": 114,
      "“": 115,
      "”": 116,
      "„": 117,
      "†": 118,
      "‡": 119,
      "•": 120,
      "…": 121,
      "‰": 122,
      "‹": 123,
      "›": 124,
      "€": 125,
      "™": 126,
      "##i": 127,
      "##l": 128,
      "##s": 129,
      "##o": 130,
      "##t": 131,
      "##h": 132,
      "##e": 133,
      "##u": 134,
      "##k": 135,
      "##n": 136,
      "##g": 137,
      "##a": 138,
      "##r": 139,
      "##d": 140,
      "##v": 141,
      "##y": 142,
      "##c": 143,
      "##m": 144,
      "##p": 145,
      "##1": 146,
      "##2": 147,
      "##j": 148,
      "##b": 149,
      "##x": 150,
      "##f": 151,
      "##w": 152,
      "##z": 153,
      "##q": 154,
      "##‡": 155,
      "##‰": 156,
      "##.": 157,
      "##\"": 158,
      "##(": 159,
      "##ˆ": 160,
      "##,": 161,
      "##{": 162,
      "##0": 163,
      "##\\": 164,
      "##'": 165,
      "##7": 166,
      "##9": 167,
      "##_": 168,
      "##@": 169,
      "##´": 170,
      "##!": 171,
      "##8": 172,
      "##5": 173,
      "##¡": 174,
      "##<": 175,
      "##/": 176,
      "##*": 177,
      "##±": 178,
      "##…": 179,
      "##?": 180,
      "##)": 181,
      "##²": 182,
      "##¿": 183,
      "##-": 184,
      "##3": 185,
      "##6": 186,
      "##4": 187,
      "##¦": 188,
      "##¬": 189,
      "##œ": 190,
      "##ª": 191,
      "##˜": 192,
      "##„": 193,
      "##>": 194,
      "##¹": 195,
      "##:": 196,
      "##;": 197,
      "##•": 198,
      "##=": 199,
      "##‚": 200,
      "##`": 201,
      "##³": 202,
      "##‹": 203,
      "##º": 204,
      "##}": 205,
      "##”": 206,
      "##©": 207,
      "##£": 208,
      "##–": 209,
      "##]": 210,
      "##™": 211,
      "##€": 212,
      "##¶": 213,
      "###": 214,
      "##¥": 215,
      "##µ": 216,
      "##¼": 217,
      "##®": 218,
      "##¨": 219,
      "##$": 220,
      "##›": 221,
      "##[": 222,
      "##ð": 223,
      "##~": 224,
      "##“": 225,
      "##¾": 226,
      "##½": 227,
      "##’": 228,
      "##¢": 229,
      "##¯": 230,
      "##ƒ": 231,
      "##æ": 232,
      "##°": 233,
      "##+": 234,
      "##‘": 235,
      "##&": 236,
      "##†": 237,
      "##he": 238,
      "the": 239,
      "##nd": 240,
      "##ed": 241,
      "and": 242,
      "to": 243,
      "##er": 244,
      "wa": 245,
      "##ou": 246,
      "##in": 247,
      "he": 248,
      "##re": 249,
      "was": 250,
      "sa": 251,
      "##ing": 252,
      "##om": 253,
      "she": 254,
      "##ar": 255,
      "##il": 256,
      "##it": 257,
      "##ay": 258,
      "it": 259,
      "##id": 260,
      "##at": 261,
      "they": 262,
      "ha": 263,
      "##en": 264,
      "##is": 265,
      "##an": 266,
      "on": 267,
      "th": 268,
      "##or": 269,
      "##im": 270,
      "##on": 271,
      "##ut": 272,
      "her": 273,
      "##ll": 274,
      "##le": 275,
      "##et": 276,
      "##ot": 277,
      "##ir": 278,
      "##es": 279,
      "in": 280,
      "##ow": 281,
      "you": 282,
      "##ck": 283,
      "##ld": 284,
      "##oo": 285,
      "said": 286,
      "be": 287,
      "##ily": 288,
      "st": 289,
      "##ig": 290,
      "tim": 291,
      "so": 292,
      "##ce": 293,
      "##pp": 294,
      "wit": 295,
      "his": 296,
      "with": 297,
      "mom": 298,
      "##ve": 299,
      "lily": 300,
      "of": 301,
      "##ked": 302,
      "fr": 303,
      "that": 304,
      "pl": 305,
      "##ery": 306,
      "##am": 307,
      "##ad": 308,
      "##ke": 309,
      "but": 310,
      "##nt": 311,
      "day": 312,
      "up": 313,
      "##ie": 314,
      "play": 315,
      "had": 316,
      "##el": 317,
      "for": 318,
      "wh": 319,
      "##st": 320,
      "##un": 321,
      "##ould": 322,
      "an": 323,
      "##my": 324,
      "##ent": 325,
      "li": 326,
      "##ra": 327,
      "##ch": 328,
      "do": 329,
      "happ": 330,
      "one": 331,
      "sh": 332,
      "want": 333,
      "##itt": 334,
      "##her": 335,
      "not": 336,
      "there": 337,
      "##ly": 338,
      "##ome": 339,
      "very": 340,
      "##se": 341,
      "##ound": 342,
      "as": 343,
      "ba": 344,
      "litt": 345,
      "little": 346,
      "ne": 347,
      "time": 348,
      "##ht": 349,
      "##al": 350,
      "ma": 351,
      "sm": 352,
      "happy": 353,
      "is": 354,
      "big": 355,
      "loo": 356,
      "saw": 357,
      "##iend": 358,
      "friend": 359,
      ".\"": 360,
      "##ry": 361,
      "re": 362,
      "bo": 363,
      "##ur": 364,
      "##ter": 365,
      "##ug": 366,
      "!\"": 367,
      "##ere": 368,
      "##ved": 369,
      "lo": 370,
      "once": 371,
      "were": 372,
      "##ore": 373,
      "se": 374,
      "ev": 375,
      "go": 376,
      "sp": 377,
      "him": 378,
      "too": 379,
      "ca": 380,
      "##ide": 381,
      "we": 382,
      "are": 383,
      "tom": 384,
      "at": 385,
      "##irl": 386,
      "can": 387,
      "##ard": 388,
      "wanted": 389,
      "ben": 390,
      "whe": 391,
      "##ill": 392,
      "girl": 393,
      "upon": 394,
      "##ec": 395,
      "their": 396,
      "out": 397,
      "them": 398,
      "##ys": 399,
      "##fu": 400,
      "##way": 401,
      "did": 402,
      "smil": 403,
      "##ind": 404,
      "could": 405,
      "have": 406,
      "no": 407,
      "##ri": 408,
      "##ted": 409,
      "##ver": 410,
      "##ain": 411,
      "ex": 412,
      "##hed": 413,
      "all": 414,
      "ar": 415,
      "went": 416,
      "hel": 417,
      "su": 418,
      "##ic": 419,
      "when": 420,
      "ta": 421,
      "help": 422,
      "##ful": 423,
      "##ood": 424,
      "?\"": 425,
      "friends": 426,
      "##hing": 427,
      "nam": 428,
      "##ight": 429,
      "kn": 430,
      "what": 431,
      "le": 432,
      "##um": 433,
      "back": 434,
      "##ark": 435,
      "##one": 436,
      "cl": 437,
      "from": 438,
      "fun": 439,
      "al": 440,
      "then": 441,
      "##all": 442,
      "timmy": 443,
      "ro": 444,
      "star": 445,
      "every": 446,
      "sc": 447,
      "smiled": 448,
      "named": 449,
      "##oug": 450,
      "loved": 451,
      "##side": 452,
      "man": 453,
      "some": 454,
      "##elt": 455,
      "asked": 456,
      "see": 457,
      "##ick": 458,
      "me": 459,
      "like": 460,
      "fe": 461,
      "##op": 462,
      "felt": 463,
      "br": 464,
      "looked": 465,
      "around": 466,
      "##ep": 467,
      "##ame": 468,
      "look": 469,
      "##omet": 470,
      "bir": 471,
      "would": 472,
      "somet": 473,
      "##get": 474,
      "fa": 475,
      "##ong": 476,
      "boy": 477,
      "##ss": 478,
      "bird": 479,
      "pr": 480,
      "##dd": 481,
      "jo": 482,
      "##est": 483,
      "##ings": 484,
      "ag": 485,
      "wor": 486,
      "make": 487,
      "mommy": 488,
      "##ade": 489,
      "car": 490,
      "than": 491,
      ",\"": 492,
      "##own": 493,
      "tre": 494,
      "ran": 495,
      "##gether": 496,
      "together": 497,
      "la": 498,
      "away": 499,
      "dad": 500,
      "says": 501,
      "started": 502,
      "##ice": 503,
      "##oud": 504,
      "something": 505,
      "##ared": 506,
      "made": 507,
      "##na": 508,
      "co": 509,
      "fl": 510,
      "##ther": 511,
      "##ited": 512,
      "park": 513,
      "sad": 514,
      "good": 515,
      "other": 516,
      "ch": 517,
      "exc": 518,
      "new": 519,
      "put": 520,
      "##out": 521,
      "who": 522,
      "hug": 523,
      "mu": 524,
      "##ble": 525,
      "again": 526,
      "let": 527,
      "home": 528,
      "sam": 529,
      "found": 530,
      "dec": 531,
      "##pped": 532,
      "##ried": 533,
      "wal": 534,
      "##ure": 535,
      "##ack": 536,
      "get": 537,
      "##ach": 538,
      "playing": 539,
      "##ought": 540,
      "gra": 541,
      "##pl": 542,
      "sw": 543,
      "##ous": 544,
      "things": 545,
      "bl": 546,
      "excited": 547,
      "your": 548,
      "liked": 549,
      "got": 550,
      "##ny": 551,
      "##uck": 552,
      "##king": 553,
      "##ge": 554,
      "##ided": 555,
      "decided": 556,
      "came": 557,
      "my": 558,
      "dog": 559,
      "scared": 560,
      "##ust": 561,
      "down": 562,
      "this": 563,
      "bec": 564,
      "##ouse": 565,
      "ab": 566,
      "find": 567,
      "pa": 568,
      "care": 569,
      "will": 570,
      "po": 571,
      "gr": 572,
      "sara": 573,
      "feel": 574,
      "anna": 575,
      "##ell": 576,
      "max": 577,
      "##ist": 578,
      "bu": 579,
      "##as": 580,
      "##arn": 581,
      "##ave": 582,
      "##nder": 583,
      "##ways": 584,
      "##ess": 585,
      "always": 586,
      "mo": 587,
      "##ook": 588,
      "took": 589,
      "about": 590,
      "lot": 591,
      "##ers": 592,
      "toys": 593,
      "kne": 594,
      "didn": 595,
      "##ged": 596,
      "##ise": 597,
      "##bb": 598,
      "old": 599,
      "outside": 600,
      "tree": 601,
      "##ite": 602,
      "ho": 603,
      "how": 604,
      "##ally": 605,
      "ball": 606,
      "thought": 607,
      "##ant": 608,
      "af": 609,
      "sor": 610,
      "more": 611,
      "##ma": 612,
      "##eci": 613,
      "##ened": 614,
      "##ched": 615,
      "learn": 616,
      "##ret": 617,
      "pu": 618,
      "tw": 619,
      "know": 620,
      "cat": 621,
      "##to": 622,
      "take": 623,
      "mi": 624,
      "laug": 625,
      "pe": 626,
      "speci": 627,
      "special": 628,
      "don": 629,
      "sudd": 630,
      "sudden": 631,
      "inside": 632,
      "knew": 633,
      "##ty": 634,
      "sorry": 635,
      "##ive": 636,
      "##ro": 637,
      "any": 638,
      "jack": 639,
      "##ff": 640,
      "suddenly": 641,
      "just": 642,
      "toy": 643,
      "##ue": 644,
      "after": 645,
      "tr": 646,
      "show": 647,
      "if": 648,
      "##ink": 649,
      "##lly": 650,
      "or": 651,
      "run": 652,
      "ra": 653,
      "sl": 654,
      "much": 655,
      "##ish": 656,
      "hand": 657,
      "house": 658,
      "sun": 659,
      "op": 660,
      "sk": 661,
      "clo": 662,
      "into": 663,
      "fin": 664,
      "tried": 665,
      "en": 666,
      "water": 667,
      "##ea": 668,
      "##ate": 669,
      "yes": 670,
      "told": 671,
      "each": 672,
      "over": 673,
      "proud": 674,
      "##ump": 675,
      "gave": 676,
      "heard": 677,
      "never": 678,
      "##dy": 679,
      "##by": 680,
      "ok": 681,
      "##use": 682,
      "eat": 683,
      "room": 684,
      "expl": 685,
      "##other": 686,
      "pick": 687,
      "pret": 688,
      "qu": 689,
      "##lled": 690,
      "gre": 691,
      "couldn": 692,
      "thank": 693,
      "played": 694,
      "##ion": 695,
      "mia": 696,
      "sha": 697,
      "come": 698,
      "##ause": 699,
      "wat": 700,
      "hugged": 701,
      "because": 702,
      "##ious": 703,
      "off": 704,
      "bear": 705,
      "now": 706,
      "com": 707,
      "nice": 708,
      "##oth": 709,
      "fo": 710,
      "box": 711,
      "##our": 712,
      "str": 713,
      "need": 714,
      "bet": 715,
      "many": 716,
      "##ile": 717,
      "##fe": 718,
      "##ft": 719,
      "small": 720,
      "##eep": 721,
      "long": 722,
      "##ving": 723,
      "##kes": 724,
      "##sed": 725,
      "##gry": 726,
      "##imal": 727,
      "animal": 728,
      "try": 729,
      "end": 730,
      "##ough": 731,
      "unt": 732,
      "##cy": 733,
      "##ild": 734,
      "until": 735,
      "even": 736,
      "##urt": 737,
      "##ort": 738,
      "##elf": 739,
      "soon": 740,
      "##iz": 741,
      "kind": 742,
      "love": 743,
      "learned": 744,
      "bea": 745,
      "everyone": 746,
      "by": 747,
      "ad": 748,
      "better": 749,
      "flow": 750,
      "spot": 751,
      "##ine": 752,
      "best": 753,
      "##urp": 754,
      "say": 755,
      "##mp": 756,
      "##ady": 757,
      "##ream": 758,
      "cle": 759,
      "##urn": 760,
      "##ace": 761,
      "##ves": 762,
      "fi": 763,
      "gard": 764,
      "garden": 765,
      "fast": 766,
      "che": 767,
      "careful": 768,
      "##ber": 769,
      "beaut": 770,
      "bra": 771,
      "##ies": 772,
      "thanked": 773,
      "sky": 774,
      "laughed": 775,
      "jump": 776,
      "gl": 777,
      "loud": 778,
      "ow": 779,
      "list": 780,
      "##ear": 781,
      "##ct": 782,
      "##iny": 783,
      "wo": 784,
      "beauti": 785,
      "##sh": 786,
      "##lew": 787,
      "lots": 788,
      "beautiful": 789,
      "hard": 790,
      "##self": 791,
      "still": 792,
      "animals": 793,
      "fam": 794,
      "joh": 795,
      "under": 796,
      "lu": 797,
      "hurt": 798,
      "stay": 799,
      "john": 800,
      "mum": 801,
      "##ning": 802,
      "both": 803,
      "dan": 804,
      "##ree": 805,
      "way": 806,
      "rem": 807,
      "two": 808,
      "##cks": 809,
      "##hes": 810,
      "bad": 811,
      "##be": 812,
      "safe": 813,
      "col": 814,
      "##ool": 815,
      "di": 816,
      "red": 817,
      "its": 818,
      "book": 819,
      "imp": 820,
      "tow": 821,
      "##ople": 822,
      "##ane": 823,
      "lived": 824,
      "people": 825,
      "##th": 826,
      "##em": 827,
      "lucy": 828,
      "okay": 829,
      "walked": 830,
      "should": 831,
      "brave": 832,
      "##urpr": 833,
      "surpr": 834,
      "##ase": 835,
      "##ished": 836,
      "angry": 837,
      "family": 838,
      "adv": 839,
      "##ress": 840,
      "##igh": 841,
      "flew": 842,
      "called": 843,
      "stor": 844,
      "##ip": 845,
      "##ept": 846,
      "##eet": 847,
      "##led": 848,
      "fore": 849,
      "kept": 850,
      "fly": 851,
      "##ect": 852,
      "share": 853,
      "##fore": 854,
      "before": 855,
      "sure": 856,
      "##ger": 857,
      "while": 858,
      "##xt": 859,
      "##ised": 860,
      "##dded": 861,
      "pic": 862,
      "keep": 863,
      "door": 864,
      "going": 865,
      "pretty": 866,
      "clean": 867,
      "dra": 868,
      "next": 869,
      "advent": 870,
      "##ary": 871,
      "##ied": 872,
      "may": 873,
      "give": 874,
      "noise": 875,
      "far": 876,
      "con": 877,
      "opened": 878,
      "shiny": 879,
      "doll": 880,
      "un": 881,
      "wind": 882,
      "cry": 883,
      "id": 884,
      "real": 885,
      "grand": 886,
      "why": 887,
      "##illy": 888,
      "##end": 889,
      "sto": 890,
      "##so": 891,
      "turn": 892,
      "explore": 893,
      "ground": 894,
      "also": 895,
      "##les": 896,
      "€™": 897,
      "##ner": 898,
      "ey": 899,
      "idea": 900,
      "sn": 901,
      "##art": 902,
      "color": 903,
      "##ap": 904,
      "nodded": 905,
      "war": 906,
      "feeling": 907,
      "where": 908,
      "blue": 909,
      "bob": 910,
      "picked": 911,
      "##imb": 912,
      "walking": 913,
      "clos": 914,
      "##thing": 915,
      "climb": 916,
      "thr": 917,
      "##ting": 918,
      "has": 919,
      "bed": 920,
      "smile": 921,
      "ple": 922,
      "wait": 923,
      "adventure": 924,
      "##oy": 925,
      "being": 926,
      "finally": 927,
      "looking": 928,
      "da": 929,
      "##iced": 930,
      "maybe": 931,
      "##ture": 932,
      "diff": 933,
      "wr": 934,
      "##and": 935,
      "food": 936,
      "listen": 937,
      "##joy": 938,
      "picture": 939,
      "think": 940,
      "del": 941,
      "remem": 942,
      "truck": 943,
      "tra": 944,
      "eyes": 945,
      "##ught": 946,
      "bro": 947,
      "gi": 948,
      "repl": 949,
      "stopped": 950,
      "great": 951,
      "bre": 952,
      "ru": 953,
      "here": 954,
      "vo": 955,
      "##qu": 956,
      "walk": 957,
      "year": 958,
      "enjoy": 959,
      "wonder": 960,
      "##able": 961,
      "remember": 962,
      "hands": 963,
      "sue": 964,
      "quick": 965,
      "##per": 966,
      "ever": 967,
      "cur": 968,
      "head": 969,
      "flowers": 970,
      "import": 971,
      "forest": 972,
      "##og": 973,
      "ac": 974,
      "noticed": 975,
      "near": 976,
      "##bbit": 977,
      "app": 978,
      "dis": 979,
      "##ized": 980,
      "watch": 981,
      "##irst": 982,
      "rabbit": 983,
      "fish": 984,
      "##llow": 985,
      "important": 986,
      "##age": 987,
      "ama": 988,
      "us": 989,
      "rain": 990,
      "sound": 991,
      "slide": 992,
      "bun": 993,
      "amaz": 994,
      "replied": 995,
      "blo": 996,
      "work": 997,
      "stop": 998,
      "follow": 999,
      "rock": 1000,
      "mor": 1001,
      "showed": 1002,
      "tal": 1003,
      "mean": 1004,
      "tou": 1005,
      "##gan": 1006,
      "##ces": 1007,
      "right": 1008,
      "sarah": 1009,
      "ask": 1010,
      "##bbed": 1011,
      "differ": 1012,
      "mag": 1013,
      "goodby": 1014,
      "our": 1015,
      "bright": 1016,
      "##day": 1017,
      "watched": 1018,
      "goodbye": 1019,
      "hop": 1020,
      "use": 1021,
      "strong": 1022,
      "am": 1023,
      "stick": 1024,
      "quickly": 1025,
      "been": 1026,
      "voice": 1027,
      "daddy": 1028,
      "please": 1029,
      "yell": 1030,
      "##ath": 1031,
      "jane": 1032,
      "different": 1033,
      "child": 1034,
      "##co": 1035,
      "boat": 1036,
      "##che": 1037,
      "##llo": 1038,
      "first": 1039,
      "became": 1040,
      "face": 1041,
      "place": 1042,
      "##ange": 1043,
      "high": 1044,
      "does": 1045,
      "##ng": 1046,
      "store": 1047,
      "closer": 1048,
      "curious": 1049,
      "##ak": 1050,
      "warm": 1051,
      "sand": 1052,
      "##ummy": 1053,
      "dress": 1054,
      "bel": 1055,
      "cook": 1056,
      "joe": 1057,
      "hello": 1058,
      "tell": 1059,
      "##ila": 1060,
      "forg": 1061,
      "em": 1062,
      "three": 1063,
      "fav": 1064,
      "grandma": 1065,
      "##oon": 1066,
      "##ount": 1067,
      "open": 1068,
      "lila": 1069,
      "##leep": 1070,
      "night": 1071,
      "cake": 1072,
      "##more": 1073,
      "pie": 1074,
      "anymore": 1075,
      "bunny": 1076,
      "butter": 1077,
      "mon": 1078,
      "##iss": 1079,
      "##ached": 1080,
      "lea": 1081,
      "flo": 1082,
      "sweet": 1083,
      "##ired": 1084,
      "kid": 1085,
      "##ull": 1086,
      "only": 1087,
      "kit": 1088,
      "pain": 1089,
      "grabbed": 1090,
      "duck": 1091,
      "##here": 1092,
      "##isy": 1093,
      "fell": 1094,
      "fire": 1095,
      "birds": 1096,
      "cont": 1097,
      "##ered": 1098,
      "jumped": 1099,
      "glad": 1100,
      "pet": 1101,
      "bit": 1102,
      "##chen": 1103,
      "per": 1104,
      "kitchen": 1105,
      "cra": 1106,
      "helped": 1107,
      "sees": 1108,
      "##outed": 1109,
      "dr": 1110,
      "hear": 1111,
      "sing": 1112,
      "##ul": 1113,
      "prin": 1114,
      "happened": 1115,
      "squ": 1116,
      "grass": 1117,
      "yummy": 1118,
      "tri": 1119,
      "ready": 1120,
      "tommy": 1121,
      "sna": 1122,
      "story": 1123,
      "shouted": 1124,
      "beh": 1125,
      "##nts": 1126,
      "really": 1127,
      "brother": 1128,
      "cr": 1129,
      "reached": 1130,
      "realized": 1131,
      "lady": 1132,
      "##ank": 1133,
      "##ey": 1134,
      "draw": 1135,
      "sho": 1136,
      "having": 1137,
      "##ins": 1138,
      "through": 1139,
      "favor": 1140,
      "mess": 1141,
      "cre": 1142,
      "hat": 1143,
      "favorite": 1144,
      "game": 1145,
      "less": 1146,
      "ate": 1147,
      "underst": 1148,
      "soft": 1149,
      "##where": 1150,
      "pare": 1151,
      "##zy": 1152,
      "thing": 1153,
      "##ather": 1154,
      "##imes": 1155,
      "cu": 1156,
      "magic": 1157,
      "pretend": 1158,
      "began": 1159,
      "world": 1160,
      "looks": 1161,
      "##ken": 1162,
      "butterf": 1163,
      "himself": 1164,
      "kids": 1165,
      "##fully": 1166,
      "making": 1167,
      "done": 1168,
      "cut": 1169,
      "##ppy": 1170,
      "rest": 1171,
      "##bo": 1172,
      "mouse": 1173,
      "coming": 1174,
      "sometimes": 1175,
      "pond": 1176,
      "prom": 1177,
      "waved": 1178,
      "ted": 1179,
      "tired": 1180,
      "##ely": 1181,
      "fix": 1182,
      "worry": 1183,
      "cars": 1184,
      "wow": 1185,
      "delic": 1186,
      "fill": 1187,
      "name": 1188,
      "flower": 1189,
      "##ater": 1190,
      "touch": 1191,
      "hold": 1192,
      "sally": 1193,
      "catch": 1194,
      "##ster": 1195,
      "##air": 1196,
      "##cked": 1197,
      "funny": 1198,
      "another": 1199,
      "hair": 1200,
      "used": 1201,
      "farm": 1202,
      "tast": 1203,
      "seen": 1204,
      "top": 1205,
      "##ient": 1206,
      "parents": 1207,
      "surprise": 1208,
      "##rel": 1209,
      "daisy": 1210,
      "te": 1211,
      "green": 1212,
      "cool": 1213,
      "cla": 1214,
      "doing": 1215,
      "hopped": 1216,
      "cried": 1217,
      "##oney": 1218,
      "blocks": 1219,
      "##iver": 1220,
      "light": 1221,
      "din": 1222,
      "\".": 1223,
      "years": 1224,
      "ste": 1225,
      "lesson": 1226,
      "read": 1227,
      "##ation": 1228,
      "snow": 1229,
      "floor": 1230,
      "wood": 1231,
      "dri": 1232,
      "##pe": 1233,
      "frog": 1234,
      "##ren": 1235,
      "behind": 1236,
      "trees": 1237,
      "##ards": 1238,
      "full": 1239,
      "running": 1240,
      "bow": 1241,
      "window": 1242,
      "worked": 1243,
      "sat": 1244,
      "smell": 1245,
      "slow": 1246,
      "dark": 1247,
      "par": 1248,
      "dro": 1249,
      "wear": 1250,
      "##ons": 1251,
      "yellow": 1252,
      "##ph": 1253,
      "likes": 1254,
      "paper": 1255,
      "wished": 1256,
      "swim": 1257,
      "##ued": 1258,
      "sleep": 1259,
      "##ag": 1260,
      "##us": 1261,
      "mar": 1262,
      "happily": 1263,
      "##ced": 1264,
      "bag": 1265,
      "pat": 1266,
      "baby": 1267,
      "surprised": 1268,
      "teddy": 1269,
      "butterfly": 1270,
      "el": 1271,
      "jim": 1272,
      "carefully": 1273,
      "set": 1274,
      "swing": 1275,
      "benny": 1276,
      "ice": 1277,
      "lost": 1278,
      "cold": 1279,
      "remembered": 1280,
      "held": 1281,
      "##orn": 1282,
      "hole": 1283,
      "own": 1284,
      "##rew": 1285,
      "laugh": 1286,
      "needed": 1287,
      "perf": 1288,
      "buy": 1289,
      "move": 1290,
      "##uff": 1291,
      "left": 1292,
      "billy": 1293,
      "fair": 1294,
      "anything": 1295,
      "dream": 1296,
      "##cess": 1297,
      "##reed": 1298,
      "tall": 1299,
      "wrong": 1300,
      "enjoyed": 1301,
      "books": 1302,
      "arri": 1303,
      "air": 1304,
      "followed": 1305,
      "children": 1306,
      "bus": 1307,
      "delicious": 1308,
      "hun": 1309,
      "mat": 1310,
      "someone": 1311,
      "table": 1312,
      "molly": 1313,
      "finished": 1314,
      "hot": 1315,
      "friendly": 1316,
      "tea": 1317,
      "contin": 1318,
      "dir": 1319,
      "ll": 1320,
      "##ndy": 1321,
      "##ens": 1322,
      "herself": 1323,
      "cream": 1324,
      "close": 1325,
      "hill": 1326,
      "##ross": 1327,
      "amy": 1328,
      "##ds": 1329,
      "understand": 1330,
      "##lf": 1331,
      "##ined": 1332,
      "might": 1333,
      "hid": 1334,
      "bug": 1335,
      "everywhere": 1336,
      "cast": 1337,
      "arrived": 1338,
      "res": 1339,
      "gent": 1340,
      "arm": 1341,
      "else": 1342,
      "wonderful": 1343,
      "tight": 1344,
      "forgot": 1345,
      "rel": 1346,
      "##ield": 1347,
      "pink": 1348,
      "squir": 1349,
      "colors": 1350,
      "build": 1351,
      "jen": 1352,
      "sig": 1353,
      "broken": 1354,
      "able": 1355,
      "gone": 1356,
      "filled": 1357,
      "song": 1358,
      "wall": 1359,
      "squirrel": 1360,
      "everything": 1361,
      "agreed": 1362,
      "gu": 1363,
      "creat": 1364,
      "continued": 1365,
      "count": 1366,
      "##asure": 1367,
      "lion": 1368,
      "##ama": 1369,
      "wants": 1370,
      "##room": 1371,
      "leaves": 1372,
      "##ich": 1373,
      "##sk": 1374,
      "later": 1375,
      "enough": 1376,
      "ju": 1377,
      "moment": 1378,
      "vis": 1379,
      "morning": 1380,
      "mama": 1381,
      "joy": 1382,
      "##ast": 1383,
      "getting": 1384,
      "cookies": 1385,
      "fight": 1386,
      "##shed": 1387,
      "stayed": 1388,
      "break": 1389,
      "##ence": 1390,
      "poin": 1391,
      "mother": 1392,
      "##av": 1393,
      "beach": 1394,
      "scary": 1395,
      "few": 1396,
      "##ance": 1397,
      "dinner": 1398,
      "spark": 1399,
      "fall": 1400,
      "hungry": 1401,
      "turned": 1402,
      "today": 1403,
      "wet": 1404,
      "##pa": 1405,
      "##gon": 1406,
      "amazing": 1407,
      "##row": 1408,
      "trying": 1409,
      "perfect": 1410,
      "plan": 1411,
      "makes": 1412,
      "##ries": 1413,
      "castle": 1414,
      "others": 1415,
      "fur": 1416,
      "climbed": 1417,
      "pen": 1418,
      "talk": 1419,
      "##oup": 1420,
      "pictures": 1421,
      "mus": 1422,
      "spl": 1423,
      "white": 1424,
      "met": 1425,
      "fox": 1426,
      "oh": 1427,
      "listened": 1428,
      "brown": 1429,
      "smiles": 1430,
      "balloon": 1431,
      "jill": 1432,
      "clot": 1433,
      "##man": 1434,
      "##oring": 1435,
      "pol": 1436,
      "ear": 1437,
      "leave": 1438,
      "clothes": 1439,
      "alone": 1440,
      "shar": 1441,
      "puppy": 1442,
      "tail": 1443,
      "##ctor": 1444,
      "hi": 1445,
      "##ated": 1446,
      "##ash": 1447,
      "##amp": 1448,
      "start": 1449,
      "##rot": 1450,
      "deep": 1451,
      "brought": 1452,
      "bi": 1453,
      "sear": 1454,
      "strange": 1455,
      "sit": 1456,
      "grow": 1457,
      "##ister": 1458,
      "##elc": 1459,
      "woods": 1460,
      "##der": 1461,
      "sail": 1462,
      "pulled": 1463,
      "danger": 1464,
      "moral": 1465,
      "##ling": 1466,
      "won": 1467,
      "welc": 1468,
      "##pping": 1469,
      "##ott": 1470,
      "ride": 1471,
      "asks": 1472,
      "treat": 1473,
      "##zz": 1474,
      "##ake": 1475,
      "visit": 1476,
      "mark": 1477,
      "##ches": 1478,
      "fluff": 1479,
      "wasn": 1480,
      "music": 1481,
      "##med": 1482,
      "amazed": 1483,
      "hide": 1484,
      "fluffy": 1485,
      "waited": 1486,
      "well": 1487,
      "towards": 1488,
      "##ang": 1489,
      "land": 1490,
      "pre": 1491,
      "##ven": 1492,
      "field": 1493,
      "silly": 1494,
      "flying": 1495,
      "##ower": 1496,
      "##iet": 1497,
      "belie": 1498,
      "##ead": 1499,
      "cloud": 1500,
      "shared": 1501,
      "runs": 1502,
      "owner": 1503,
      "##ained": 1504,
      "slowly": 1505,
      "##key": 1506,
      "quiet": 1507,
      "living": 1508,
      "job": 1509,
      "##ames": 1510,
      "##ever": 1511,
      "promised": 1512,
      "side": 1513,
      "##gs": 1514,
      "##la": 1515,
      "##cle": 1516,
      "lake": 1517,
      "##orm": 1518,
      "thinks": 1519,
      "##pes": 1520,
      "##cket": 1521,
      "sister": 1522,
      "##ugg": 1523,
      "paint": 1524,
      "mary": 1525,
      "##thy": 1526,
      "##igg": 1527,
      "na": 1528,
      "party": 1529,
      "must": 1530,
      "cho": 1531,
      "##ually": 1532,
      "race": 1533,
      "money": 1534,
      "bar": 1535,
      "##ises": 1536,
      "##avy": 1537,
      "worried": 1538,
      "##sw": 1539,
      "##sp": 1540,
      "answ": 1541,
      "pot": 1542,
      "faster": 1543,
      "princess": 1544,
      "dance": 1545,
      "colorful": 1546,
      "grate": 1547,
      "pieces": 1548,
      "##ased": 1549,
      "bran": 1550,
      "mr": 1551,
      "bott": 1552,
      "luck": 1553,
      "cup": 1554,
      "broke": 1555,
      "pro": 1556,
      "win": 1557,
      "grateful": 1558,
      "such": 1559,
      "bigger": 1560,
      "train": 1561,
      "##ze": 1562,
      "candy": 1563,
      "pull": 1564,
      "ele": 1565,
      "monster": 1566,
      "reach": 1567,
      "blank": 1568,
      "black": 1569,
      "farmer": 1570,
      "stu": 1571,
      "join": 1572,
      "welcome": 1573,
      "river": 1574,
      "##app": 1575,
      "##less": 1576,
      "call": 1577,
      "inst": 1578,
      "treasure": 1579,
      "lun": 1580,
      "blanket": 1581,
      "scream": 1582,
      "comp": 1583,
      "magical": 1584,
      "dragon": 1585,
      "smart": 1586,
      "bee": 1587,
      "kitt": 1588,
      "dangerous": 1589,
      "bike": 1590,
      "##uit": 1591,
      "event": 1592,
      "sign": 1593,
      "most": 1594,
      "helping": 1595,
      "across": 1596,
      "nap": 1597,
      "min": 1598,
      "spr": 1599,
      "miss": 1600,
      "jimmy": 1601,
      "##outh": 1602,
      "disapp": 1603,
      "mouth": 1604,
      "##set": 1605,
      "##let": 1606,
      "##icy": 1607,
      "words": 1608,
      "pass": 1609,
      "stre": 1610,
      "dolls": 1611,
      "acc": 1612,
      "tower": 1613,
      "believe": 1614,
      "##eared": 1615,
      "doctor": 1616,
      "threw": 1617,
      "stepped": 1618,
      "heavy": 1619,
      "##ming": 1620,
      "bite": 1621,
      "bowl": 1622,
      "dirty": 1623,
      "twins": 1624,
      "same": 1625,
      "##oom": 1626,
      "crying": 1627,
      "##de": 1628,
      "##ored": 1629,
      "##ident": 1630,
      "heal": 1631,
      "bath": 1632,
      "hig": 1633,
      "##red": 1634,
      "carrot": 1635,
      "##fort": 1636,
      "##chool": 1637,
      "##ment": 1638,
      "closed": 1639,
      "##bble": 1640,
      "mummy": 1641,
      "##lla": 1642,
      "heart": 1643,
      "buck": 1644,
      "fruit": 1645,
      "cour": 1646,
      "stuck": 1647,
      "att": 1648,
      "plant": 1649,
      "school": 1650,
      "without": 1651,
      "##os": 1652,
      "mix": 1653,
      "emma": 1654,
      "eating": 1655,
      "hoped": 1656,
      "##ipped": 1657,
      "fairy": 1658,
      "bask": 1659,
      "basket": 1660,
      "##iting": 1661,
      "feels": 1662,
      "##cher": 1663,
      "chair": 1664,
      "town": 1665,
      "cray": 1666,
      "butt": 1667,
      "wouldn": 1668,
      "course": 1669,
      "clapped": 1670,
      "stand": 1671,
      "coll": 1672,
      "ve": 1673,
      "gentle": 1674,
      "pack": 1675,
      "eventually": 1676,
      "##ier": 1677,
      "along": 1678,
      "drove": 1679,
      "pushed": 1680,
      "##ors": 1681,
      "##br": 1682,
      "##issed": 1683,
      "higher": 1684,
      "smo": 1685,
      "neigh": 1686,
      "free": 1687,
      "swings": 1688,
      "sec": 1689,
      "kno": 1690,
      "pocket": 1691,
      "je": 1692,
      "##orrow": 1693,
      "teacher": 1694,
      "hit": 1695,
      "accident": 1696,
      "pers": 1697,
      "neighb": 1698,
      "har": 1699,
      "##ord": 1700,
      "games": 1701,
      "piece": 1702,
      "##ourn": 1703,
      "cheered": 1704,
      "wings": 1705,
      "forget": 1706,
      "journ": 1707,
      "explained": 1708,
      "mine": 1709,
      "yard": 1710,
      "longer": 1711,
      "##que": 1712,
      "##ible": 1713,
      "dry": 1714,
      "##umb": 1715,
      "throw": 1716,
      "##ire": 1717,
      "noises": 1718,
      "##itting": 1719,
      "sang": 1720,
      "late": 1721,
      "young": 1722,
      "happen": 1723,
      "hugs": 1724,
      "##ract": 1725,
      "turns": 1726,
      "stories": 1727,
      "singing": 1728,
      "tiny": 1729,
      "instead": 1730,
      "mad": 1731,
      "lon": 1732,
      "##sc": 1733,
      "shoes": 1734,
      "##vel": 1735,
      "eleph": 1736,
      "king": 1737,
      "elephant": 1738,
      "adventures": 1739,
      "owl": 1740,
      "apple": 1741,
      "trou": 1742,
      "neck": 1743,
      "lunch": 1744,
      "monkey": 1745,
      "sea": 1746,
      "ph": 1747,
      "gift": 1748,
      "upset": 1749,
      "jar": 1750,
      "lonely": 1751,
      "pla": 1752,
      "street": 1753,
      "belong": 1754,
      "dist": 1755,
      "secret": 1756,
      "wish": 1757,
      "##oun": 1758,
      "des": 1759,
      "##ost": 1760,
      "purp": 1761,
      "fence": 1762,
      "##ountain": 1763,
      "inv": 1764,
      "soup": 1765,
      "wise": 1766,
      "nearby": 1767,
      "exploring": 1768,
      "shook": 1769,
      "nothing": 1770,
      "moved": 1771,
      "de": 1772,
      "sammy": 1773,
      "naught": 1774,
      "bring": 1775,
      "naughty": 1776,
      "shop": 1777,
      "stars": 1778,
      "##fused": 1779,
      "taking": 1780,
      "##bow": 1781,
      "sunny": 1782,
      "bat": 1783,
      "##ol": 1784,
      "##yard": 1785,
      "caught": 1786,
      "drink": 1787,
      "##ward": 1788,
      "purple": 1789,
      "rocks": 1790,
      "backyard": 1791,
      "mil": 1792,
      "seemed": 1793,
      "relie": 1794,
      "whenever": 1795,
      "resp": 1796,
      "dropped": 1797,
      "##ughter": 1798,
      "ima": 1799,
      "orange": 1800,
      "mail": 1801,
      "though": 1802,
      "bucket": 1803,
      "##adow": 1804,
      "mitt": 1805,
      "swam": 1806,
      "##cing": 1807,
      "##sy": 1808,
      "cow": 1809,
      "past": 1810,
      "##ped": 1811,
      "shapes": 1812,
      "##ts": 1813,
      "rainbow": 1814,
      "##ions": 1815,
      "sitting": 1816,
      "sounds": 1817,
      "woke": 1818,
      "bench": 1819,
      "##ity": 1820,
      "fit": 1821,
      "boun": 1822,
      "busy": 1823,
      "wondered": 1824,
      "ob": 1825,
      "nose": 1826,
      "daughter": 1827,
      "nest": 1828,
      "pig": 1829,
      "juice": 1830,
      "##ese": 1831,
      "takes": 1832,
      "kite": 1833,
      "cou": 1834,
      "holding": 1835,
      "##col": 1836,
      "lucky": 1837,
      "key": 1838,
      "days": 1839,
      "##read": 1840,
      "part": 1841,
      "comes": 1842,
      "##bby": 1843,
      "birth": 1844,
      "arms": 1845,
      "birthday": 1846,
      "tweet": 1847,
      "cir": 1848,
      "coat": 1849,
      "round": 1850,
      "rec": 1851,
      "##ining": 1852,
      "branch": 1853,
      "relieved": 1854,
      "##raid": 1855,
      "zoom": 1856,
      "afraid": 1857,
      "driver": 1858,
      "forever": 1859,
      "##idge": 1860,
      "inter": 1861,
      "##are": 1862,
      "peace": 1863,
      "spoon": 1864,
      "##vered": 1865,
      "promise": 1866,
      "##ek": 1867,
      "cute": 1868,
      "carry": 1869,
      "jenny": 1870,
      "sick": 1871,
      "cheese": 1872,
      "hope": 1873,
      "##ours": 1874,
      "huge": 1875,
      "patient": 1876,
      "grab": 1877,
      "##ung": 1878,
      "touched": 1879,
      "##unt": 1880,
      "fing": 1881,
      "honey": 1882,
      "letter": 1883,
      "life": 1884,
      "exciting": 1885,
      "imag": 1886,
      "laughing": 1887,
      "bush": 1888,
      "onto": 1889,
      "band": 1890,
      "gigg": 1891,
      "##board": 1892,
      "creature": 1893,
      "disco": 1894,
      "bread": 1895,
      "##gged": 1896,
      "ret": 1897,
      "ig": 1898,
      "kick": 1899,
      "power": 1900,
      "shell": 1901,
      "sunsh": 1902,
      "craw": 1903,
      "mist": 1904,
      "swimming": 1905,
      "sunshine": 1906,
      "##alm": 1907,
      "inc": 1908,
      "whist": 1909,
      "cozy": 1910,
      "journey": 1911,
      "emily": 1912,
      "suc": 1913,
      "spin": 1914,
      "wra": 1915,
      "milk": 1916,
      "##ness": 1917,
      "bottle": 1918,
      "sharp": 1919,
      "watching": 1920,
      "##mm": 1921,
      "return": 1922,
      "pudd": 1923,
      "##ten": 1924,
      "eas": 1925,
      "hey": 1926,
      "##esting": 1927,
      "accidentally": 1928,
      "cave": 1929,
      "shout": 1930,
      "##pt": 1931,
      "##ian": 1932,
      "spo": 1933,
      "cor": 1934,
      "grandpa": 1935,
      "eg": 1936,
      "puts": 1937,
      "ann": 1938,
      "talked": 1939,
      "gather": 1940,
      "pointed": 1941,
      "##ia": 1942,
      "gives": 1943,
      "mittens": 1944,
      "ent": 1945,
      "fan": 1946,
      "smiling": 1947,
      "hor": 1948,
      "road": 1949,
      "ce": 1950,
      "anyone": 1951,
      "whis": 1952,
      "bought": 1953,
      "searched": 1954,
      "apples": 1955,
      "sandw": 1956,
      "##els": 1957,
      "act": 1958,
      "##ball": 1959,
      "meet": 1960,
      "proble": 1961,
      "problem": 1962,
      "mach": 1963,
      "##irt": 1964,
      "##ize": 1965,
      "roll": 1966,
      "spid": 1967,
      "wom": 1968,
      "these": 1969,
      "pop": 1970,
      "interesting": 1971,
      "loves": 1972,
      "kiss": 1973,
      "woman": 1974,
      "plane": 1975,
      "ducks": 1976,
      "healthy": 1977,
      "pres": 1978,
      "tasty": 1979,
      "clever": 1980,
      "##eter": 1981,
      "pile": 1982,
      "wide": 1983,
      "vill": 1984,
      "trouble": 1985,
      "##amed": 1986,
      "##sie": 1987,
      "adm": 1988,
      "##ned": 1989,
      "hon": 1990,
      "prot": 1991,
      "##aur": 1992,
      "ap": 1993,
      "crayons": 1994,
      "clouds": 1995,
      "matter": 1996,
      "##owed": 1997,
      "storm": 1998,
      "feather": 1999,
      "person": 2000,
      "pill": 2001,
      "##ont": 2002,
      "rose": 2003,
      "snowman": 2004,
      "path": 2005,
      "which": 2006,
      "##round": 2007,
      "##fted": 2008,
      "rope": 2009,
      "##ub": 2010,
      "##cer": 2011,
      "##fortable": 2012,
      "shining": 2013,
      "zoo": 2014,
      "smelled": 2015,
      "front": 2016,
      "val": 2017,
      "button": 2018,
      "pract": 2019,
      "bubble": 2020,
      "jake": 2021,
      "spotted": 2022,
      "saf": 2023,
      "minut": 2024,
      "screamed": 2025,
      "present": 2026,
      "mud": 2027,
      "snack": 2028,
      "organ": 2029,
      "##ching": 2030,
      "ash": 2031,
      "rob": 2032,
      "##eb": 2033,
      "danced": 2034,
      "sur": 2035,
      "puzz": 2036,
      "teach": 2037,
      "##dge": 2038,
      "cheer": 2039,
      "quest": 2040,
      "appeared": 2041,
      "bark": 2042,
      "thin": 2043,
      "snake": 2044,
      "seat": 2045,
      "œw": 2046,
      "wild": 2047,
      "shr": 2048,
      "##isa": 2049,
      "gently": 2050,
      "lovely": 2051,
      "##ular": 2052,
      "answer": 2053,
      "asleep": 2054,
      "giant": 2055,
      "horse": 2056,
      "char": 2057,
      "tear": 2058,
      "##epend": 2059,
      "wearing": 2060,
      "mind": 2061,
      "neighbor": 2062,
      "##oose": 2063,
      "places": 2064,
      "##pper": 2065,
      "goes": 2066,
      "whole": 2067,
      "##ove": 2068,
      "lisa": 2069,
      "respect": 2070,
      "confused": 2071,
      "lar": 2072,
      "corner": 2073,
      "impress": 2074,
      "med": 2075,
      "dirt": 2076,
      "splas": 2077,
      "sharing": 2078,
      "exp": 2079,
      "chick": 2080,
      "tries": 2081,
      "trip": 2082,
      "calm": 2083,
      "live": 2084,
      "##ale": 2085,
      "slid": 2086,
      "supp": 2087,
      "##ato": 2088,
      "rolled": 2089,
      "card": 2090,
      "tasted": 2091,
      "ser": 2092,
      "forgive": 2093,
      "##nic": 2094,
      "##ert": 2095,
      "##cean": 2096,
      "ocean": 2097,
      "last": 2098,
      "picnic": 2099,
      "machine": 2100,
      "tun": 2101,
      "rude": 2102,
      "drive": 2103,
      "teet": 2104,
      "true": 2105,
      "spent": 2106,
      "teeth": 2107,
      "##ssed": 2108,
      "ring": 2109,
      "spider": 2110,
      "pan": 2111,
      "furry": 2112,
      "##ee": 2113,
      "cookie": 2114,
      "phone": 2115,
      "lay": 2116,
      "##ager": 2117,
      "scar": 2118,
      "pour": 2119,
      "sal": 2120,
      "oven": 2121,
      "delight": 2122,
      "worm": 2123,
      "##fl": 2124,
      "kitty": 2125,
      "##ser": 2126,
      "##eak": 2127,
      "pretended": 2128,
      "fighting": 2129,
      "feet": 2130,
      "tomorrow": 2131,
      "protect": 2132,
      "peter": 2133,
      "faces": 2134,
      "lad": 2135,
      "##bar": 2136,
      "##unk": 2137,
      "ban": 2138,
      "helpful": 2139,
      "##umber": 2140,
      "nut": 2141,
      "wip": 2142,
      "wave": 2143,
      "##lder": 2144,
      "mountain": 2145,
      "chocol": 2146,
      "grace": 2147,
      "bell": 2148,
      "talking": 2149,
      "step": 2150,
      "shy": 2151,
      "sque": 2152,
      "ign": 2153,
      "##ones": 2154,
      "tid": 2155,
      "spread": 2156,
      "self": 2157,
      "push": 2158,
      "ant": 2159,
      "stret": 2160,
      "eager": 2161,
      "village": 2162,
      "foot": 2163,
      "remind": 2164,
      "write": 2165,
      "coin": 2166,
      "couch": 2167,
      "seek": 2168,
      "building": 2169,
      "ladder": 2170,
      "smooth": 2171,
      "bugs": 2172,
      "coo": 2173,
      "treats": 2174,
      "tool": 2175,
      "robot": 2176,
      "wore": 2177,
      "chased": 2178,
      "paw": 2179,
      "œi": 2180,
      "blew": 2181,
      "##lex": 2182,
      "embar": 2183,
      "collect": 2184,
      "embarra": 2185,
      "stir": 2186,
      "cross": 2187,
      "hiding": 2188,
      "pool": 2189,
      "waiting": 2190,
      "fred": 2191,
      "knee": 2192,
      "puddle": 2193,
      "roar": 2194,
      "finish": 2195,
      "chocolate": 2196,
      "shelf": 2197,
      "##not": 2198,
      "songs": 2199,
      "##als": 2200,
      "##ator": 2201,
      "selfish": 2202,
      "stra": 2203,
      "##scap": 2204,
      "##ife": 2205,
      "cannot": 2206,
      "banan": 2207,
      "sol": 2208,
      "string": 2209,
      "hum": 2210,
      "##llie": 2211,
      "##ult": 2212,
      "trust": 2213,
      "taste": 2214,
      "gen": 2215,
      "leaf": 2216,
      "sack": 2217,
      "spray": 2218,
      "œy": 2219,
      "crab": 2220,
      "net": 2221,
      "large": 2222,
      "cele": 2223,
      "tidy": 2224,
      "wash": 2225,
      "##box": 2226,
      "fixed": 2227,
      "stone": 2228,
      "celebr": 2229,
      "barked": 2230,
      "colour": 2231,
      "splash": 2232,
      "cloth": 2233,
      "peaceful": 2234,
      "uni": 2235,
      "##umpy": 2236,
      "##izz": 2237,
      "moon": 2238,
      "jung": 2239,
      "jungle": 2240,
      "honest": 2241,
      "johnny": 2242,
      "deter": 2243,
      "missed": 2244,
      "shirt": 2245,
      "##iger": 2246,
      "alice": 2247,
      "jumping": 2248,
      "gray": 2249,
      "##oin": 2250,
      "determ": 2251,
      "int": 2252,
      "##mmer": 2253,
      "embarrassed": 2254,
      "forward": 2255,
      "landed": 2256,
      "decor": 2257,
      "neckl": 2258,
      "necklace": 2259,
      "rex": 2260,
      "##ail": 2261,
      "tv": 2262,
      "##ass": 2263,
      "ber": 2264,
      "disappoin": 2265,
      "hears": 2266,
      "success": 2267,
      "sticks": 2268,
      "carrots": 2269,
      "bal": 2270,
      "creative": 2271,
      "emp": 2272,
      "alm": 2273,
      "meadow": 2274,
      "knocked": 2275,
      "##ying": 2276,
      "almost": 2277,
      "veget": 2278,
      "gener": 2279,
      "vegetable": 2280,
      "##airs": 2281,
      "sour": 2282,
      "stood": 2283,
      "gas": 2284,
      "hur": 2285,
      "meant": 2286,
      "fear": 2287,
      "legs": 2288,
      "##elly": 2289,
      "whistle": 2290,
      "tightly": 2291,
      "breath": 2292,
      "ashamed": 2293,
      "plate": 2294,
      "lem": 2295,
      "pillow": 2296,
      "empty": 2297,
      "grew": 2298,
      "tells": 2299,
      "##dle": 2300,
      "av": 2301,
      "gold": 2302,
      "##gy": 2303,
      "mir": 2304,
      "sheep": 2305,
      "##ground": 2306,
      "##ush": 2307,
      "##ope": 2308,
      "understood": 2309,
      "clear": 2310,
      "carried": 2311,
      "hours": 2312,
      "##den": 2313,
      "yelled": 2314,
      "disappointed": 2315,
      "save": 2316,
      "police": 2317,
      "##ime": 2318,
      "jew": 2319,
      "pay": 2320,
      "nods": 2321,
      "snacks": 2322,
      "##ustr": 2323,
      "##vous": 2324,
      "myster": 2325,
      "##ital": 2326,
      "frustr": 2327,
      "leo": 2328,
      "kitten": 2329,
      "chew": 2330,
      "block": 2331,
      "sparkly": 2332,
      "hosp": 2333,
      "poor": 2334,
      "pizz": 2335,
      "ship": 2336,
      "prince": 2337,
      "##ets": 2338,
      "hospital": 2339,
      "standing": 2340,
      "wolf": 2341,
      "rad": 2342,
      "line": 2343,
      "pin": 2344,
      "bored": 2345,
      "hidden": 2346,
      "generous": 2347,
      "knowing": 2348,
      "##cles": 2349,
      "taught": 2350,
      "glass": 2351,
      "blow": 2352,
      "liz": 2353,
      "##urse": 2354,
      "easy": 2355,
      "scarf": 2356,
      "jelly": 2357,
      "pri": 2358,
      "minutes": 2359,
      "##body": 2360,
      "plants": 2361,
      "returned": 2362,
      "polite": 2363,
      "group": 2364,
      "mysterious": 2365,
      "waves": 2366,
      "bedroom": 2367,
      "pizza": 2368,
      "pir": 2369,
      "wis": 2370,
      "##ected": 2371,
      "shore": 2372,
      "sighed": 2373,
      "spicy": 2374,
      "frustrated": 2375,
      "seed": 2376,
      "##ork": 2377,
      "##iff": 2378,
      "determined": 2379,
      "class": 2380,
      "sco": 2381,
      "thankful": 2382,
      "puzzle": 2383,
      "powerful": 2384,
      "susie": 2385,
      "reg": 2386,
      "sleepy": 2387,
      "ner": 2388,
      "fig": 2389,
      "##kin": 2390,
      "mid": 2391,
      "sandwich": 2392,
      "gun": 2393,
      "drew": 2394,
      "mot": 2395,
      "tick": 2396,
      "grumpy": 2397,
      "passed": 2398,
      "##ested": 2399,
      "finger": 2400,
      "spoil": 2401,
      "fancy": 2402,
      "law": 2403,
      "nervous": 2404,
      "##work": 2405,
      "mill": 2406,
      "messy": 2407,
      "lock": 2408,
      "tears": 2409,
      "feed": 2410,
      "##erp": 2411,
      "bridge": 2412,
      "gate": 2413,
      "##illar": 2414,
      "caterp": 2415,
      "##ird": 2416,
      "caterpillar": 2417,
      "van": 2418,
      "sold": 2419,
      "hang": 2420,
      "kissed": 2421,
      "closet": 2422,
      "##osaur": 2423,
      "œth": 2424,
      "excite": 2425,
      "dinosaur": 2426,
      "gathered": 2427,
      "##uce": 2428,
      "que": 2429,
      "##ote": 2430,
      "escap": 2431,
      "flag": 2432,
      "bubbles": 2433,
      "sciss": 2434,
      "whisper": 2435,
      "yourself": 2436,
      "scissors": 2437,
      "##lo": 2438,
      "working": 2439,
      "bill": 2440,
      "answered": 2441,
      "ug": 2442,
      "##sel": 2443,
      "often": 2444,
      "drop": 2445,
      "cries": 2446,
      "scr": 2447,
      "hopping": 2448,
      "chest": 2449,
      "twirl": 2450,
      "##era": 2451,
      "##selves": 2452,
      "deer": 2453,
      "##oop": 2454,
      "##pack": 2455,
      "ugly": 2456,
      "cand": 2457,
      "##flower": 2458,
      "##mb": 2459,
      "burn": 2460,
      "fil": 2461,
      "##ensive": 2462,
      "expensive": 2463,
      "excitement": 2464,
      "lit": 2465,
      "middle": 2466,
      "saved": 2467,
      "##ina": 2468,
      "taken": 2469,
      "leg": 2470,
      "sug": 2471,
      "mel": 2472,
      "wagged": 2473,
      "crown": 2474,
      "pleased": 2475,
      "ones": 2476,
      "spend": 2477,
      "boring": 2478,
      "##oof": 2479,
      "##hy": 2480,
      "picks": 2481,
      "##ax": 2482,
      "bobby": 2483,
      "boss": 2484,
      "asking": 2485,
      "jog": 2486,
      "tent": 2487,
      "vase": 2488,
      "sugar": 2489,
      "##illed": 2490,
      "brush": 2491,
      "tie": 2492,
      "queen": 2493,
      "##astic": 2494,
      "dancing": 2495,
      "vegetables": 2496,
      "##ual": 2497,
      "fine": 2498,
      "##ates": 2499,
      "lift": 2500,
      "number": 2501,
      "giggled": 2502,
      "stuff": 2503,
      "rocket": 2504,
      "esp": 2505,
      "##ecially": 2506,
      "especially": 2507,
      "cage": 2508,
      "clown": 2509,
      "mistake": 2510,
      "flut": 2511,
      "##ud": 2512,
      "gets": 2513,
      "##itter": 2514,
      "##light": 2515,
      "comfortable": 2516,
      "test": 2517,
      "packed": 2518,
      "jam": 2519,
      "press": 2520,
      "wander": 2521,
      "bye": 2522,
      "knight": 2523,
      "lying": 2524,
      "medic": 2525,
      "sweetie": 2526,
      "##iv": 2527,
      "##ose": 2528,
      "sight": 2529,
      "fake": 2530,
      "fruits": 2531,
      "eggs": 2532,
      "dest": 2533,
      "drum": 2534,
      "##iness": 2535,
      "lemon": 2536,
      "pus": 2537,
      "mandy": 2538,
      "glue": 2539,
      "medicine": 2540,
      "elder": 2541,
      "pray": 2542,
      "moving": 2543,
      "##ror": 2544,
      "drawing": 2545,
      "walks": 2546,
      "distance": 2547,
      "clap": 2548,
      "bone": 2549,
      "yog": 2550,
      "bake": 2551,
      "splashed": 2552,
      "week": 2553,
      "##aff": 2554,
      "rich": 2555,
      "change": 2556,
      "aunt": 2557,
      "dogs": 2558,
      "lead": 2559,
      "fold": 2560,
      "smelly": 2561,
      "disappeared": 2562,
      "##yal": 2563,
      "chir": 2564,
      "gar": 2565,
      "feathers": 2566,
      "match": 2567,
      "become": 2568,
      "moms": 2569,
      "add": 2570,
      "father": 2571,
      "mic": 2572,
      "fis": 2573,
      "lazy": 2574,
      "elderly": 2575,
      "mov": 2576,
      "##itch": 2577,
      "lose": 2578,
      "pete": 2579,
      "licked": 2580,
      "calling": 2581,
      "rid": 2582,
      "penny": 2583,
      "shoot": 2584,
      "cri": 2585,
      "playground": 2586,
      "bathroom": 2587,
      "incred": 2588,
      "weak": 2589,
      "exam": 2590,
      "horn": 2591,
      "body": 2592,
      "?\".": 2593,
      "yours": 2594,
      "aw": 2595,
      "questions": 2596,
      "boys": 2597,
      "wrote": 2598,
      "mirror": 2599,
      "loyal": 2600,
      "noisy": 2601,
      "nod": 2602,
      "adventur": 2603,
      "##omed": 2604,
      "sugg": 2605,
      "tiger": 2606,
      "##ory": 2607,
      "wheel": 2608,
      "ellie": 2609,
      "check": 2610,
      "skipped": 2611,
      "ter": 2612,
      "dish": 2613,
      "lamp": 2614,
      "famous": 2615,
      "ind": 2616,
      "glow": 2617,
      "##hip": 2618,
      "sell": 2619,
      "dig": 2620,
      "##ond": 2621,
      "tape": 2622,
      "##land": 2623,
      "ext": 2624,
      "rare": 2625,
      "##ging": 2626,
      "thanks": 2627,
      "relax": 2628,
      "soap": 2629,
      "ang": 2630,
      "stones": 2631,
      "ord": 2632,
      "ruined": 2633,
      "covered": 2634,
      "##ination": 2635,
      "incredible": 2636,
      "map": 2637,
      "figure": 2638,
      "content": 2639,
      "swan": 2640,
      "drank": 2641,
      "shows": 2642,
      "juicy": 2643,
      "balls": 2644,
      "measure": 2645,
      "team": 2646,
      "sailed": 2647,
      "##ots": 2648,
      "##zed": 2649,
      "##ately": 2650,
      "straw": 2651,
      "decide": 2652,
      "ella": 2653,
      "turt": 2654,
      "realised": 2655,
      "##umbled": 2656,
      "barn": 2657,
      "discovered": 2658,
      "##ti": 2659,
      "borrow": 2660,
      "coins": 2661,
      "those": 2662,
      "needs": 2663,
      "##aw": 2664,
      "bella": 2665,
      "chicken": 2666,
      "mod": 2667,
      "joke": 2668,
      "mana": 2669,
      "towel": 2670,
      "cleaned": 2671,
      "##eed": 2672,
      "extra": 2673,
      "branches": 2674,
      "board": 2675,
      "##ating": 2676,
      "motor": 2677,
      "balance": 2678,
      "adventurous": 2679,
      "mighty": 2680,
      "diffic": 2681,
      "##asing": 2682,
      "sadly": 2683,
      "offered": 2684,
      "##port": 2685,
      "ge": 2686,
      "dol": 2687,
      "dolph": 2688,
      "lifted": 2689,
      "colourful": 2690,
      "snugg": 2691,
      "##keep": 2692,
      "frown": 2693,
      "eye": 2694,
      "thick": 2695,
      "tag": 2696,
      "guess": 2697,
      "toug": 2698,
      "bobo": 2699,
      "difficult": 2700,
      "##ron": 2701,
      "organized": 2702,
      "cover": 2703,
      "unique": 2704,
      "bottom": 2705,
      "jeal": 2706,
      "jealous": 2707,
      "fright": 2708,
      "happening": 2709,
      "weird": 2710,
      "learning": 2711,
      "knife": 2712,
      "hose": 2713,
      "island": 2714,
      "mrs": 2715,
      "kindness": 2716,
      "##izzy": 2717,
      "sil": 2718,
      "four": 2719,
      "##cil": 2720,
      "garage": 2721,
      "managed": 2722,
      "word": 2723,
      "smoke": 2724,
      "bald": 2725,
      "hurts": 2726,
      "pencil": 2727,
      "##lies": 2728,
      "##imed": 2729,
      "##ges": 2730,
      "wand": 2731,
      "circle": 2732,
      "zip": 2733,
      "squee": 2734,
      "dave": 2735,
      "cost": 2736,
      "desig": 2737,
      "crawled": 2738,
      "saying": 2739,
      "arg": 2740,
      "balloons": 2741,
      "coco": 2742,
      "uncle": 2743,
      "hunt": 2744,
      "shake": 2745,
      "compet": 2746,
      "chase": 2747,
      "tough": 2748,
      "berries": 2749,
      "dizzy": 2750,
      "pointing": 2751,
      "##ready": 2752,
      "bur": 2753,
      "search": 2754,
      "jewel": 2755,
      "##ject": 2756,
      "##olog": 2757,
      "favour": 2758,
      "##ured": 2759,
      "whale": 2760,
      "##imp": 2761,
      "##illi": 2762,
      "louder": 2763,
      "turtle": 2764,
      "tweety": 2765,
      "apolog": 2766,
      "pump": 2767,
      "added": 2768,
      "##mo": 2769,
      "##itar": 2770,
      "guitar": 2771,
      "unus": 2772,
      "norm": 2773,
      "fool": 2774,
      "harder": 2775,
      "##keeper": 2776,
      "already": 2777,
      "edge": 2778,
      "birdie": 2779,
      "spun": 2780,
      "libr": 2781,
      "strawber": 2782,
      "valu": 2783,
      "unusual": 2784,
      "buzz": 2785,
      "##head": 2786,
      "##ddy": 2787,
      "favourite": 2788,
      "pear": 2789,
      "hero": 2790,
      "enjoying": 2791,
      "ref": 2792,
      "##rage": 2793,
      "record": 2794,
      "hats": 2795,
      "cheerful": 2796,
      "trucks": 2797,
      "belonged": 2798,
      "wrapped": 2799,
      "giving": 2800,
      "excitedly": 2801,
      "wake": 2802,
      "trunk": 2803,
      "flash": 2804,
      "impressed": 2805,
      "##oc": 2806,
      "banana": 2807,
      "sword": 2808,
      "grown": 2809,
      "market": 2810,
      "normal": 2811,
      "choose": 2812,
      "pil": 2813,
      "laughs": 2814,
      "##ps": 2815,
      "soph": 2816,
      "##anged": 2817,
      "brilli": 2818,
      "harm": 2819,
      "bossy": 2820,
      "ears": 2821,
      "terri": 2822,
      "loudly": 2823,
      "##uct": 2824,
      "brilliant": 2825,
      "scare": 2826,
      "goat": 2827,
      "pip": 2828,
      "stri": 2829,
      "proudly": 2830,
      "boxes": 2831,
      "pee": 2832,
      "buttons": 2833,
      "##nda": 2834,
      "painting": 2835,
      "circles": 2836,
      "##ilt": 2837,
      "escape": 2838,
      "brothers": 2839,
      "##ature": 2840,
      "##ara": 2841,
      "dreamed": 2842,
      "frightened": 2843,
      "against": 2844,
      "skin": 2845,
      "cab": 2846,
      "anc": 2847,
      "invited": 2848,
      "##alk": 2849,
      "helps": 2850,
      "cudd": 2851,
      "acce": 2852,
      "happiness": 2853,
      "ancient": 2854,
      "depend": 2855,
      "study": 2856,
      "sof": 2857,
      "suit": 2858,
      "means": 2859,
      "stubb": 2860,
      "safely": 2861,
      "snee": 2862,
      "##ym": 2863,
      "clay": 2864,
      "lola": 2865,
      "valuable": 2866,
      "stubborn": 2867,
      "slipped": 2868,
      "log": 2869,
      "cabin": 2870,
      "##fast": 2871,
      "shark": 2872,
      "crayon": 2873,
      "stream": 2874,
      "cart": 2875,
      "breakfast": 2876,
      "successful": 2877,
      "walls": 2878,
      "##akes": 2879,
      "##ouses": 2880,
      "dreams": 2881,
      "son": 2882,
      "##edient": 2883,
      "foolish": 2884,
      "lean": 2885,
      "fier": 2886,
      "cher": 2887,
      "fat": 2888,
      "##orge": 2889,
      "knows": 2890,
      "fridge": 2891,
      "nemo": 2892,
      "falls": 2893,
      "space": 2894,
      "shape": 2895,
      "fierce": 2896,
      "nicely": 2897,
      "##ha": 2898,
      "cro": 2899,
      "tomato": 2900,
      "shadow": 2901,
      "nosy": 2902,
      "dead": 2903,
      "rough": 2904,
      "movie": 2905,
      "city": 2906,
      "corn": 2907,
      "houses": 2908,
      "icy": 2909,
      "delicate": 2910,
      "office": 2911,
      "obedient": 2912,
      "competit": 2913,
      "mem": 2914,
      "##ado": 2915,
      "##laimed": 2916,
      "œlet": 2917,
      "rat": 2918,
      "suggested": 2919,
      "##ention": 2920,
      "wagon": 2921,
      "perform": 2922,
      "notice": 2923,
      "bounce": 2924,
      "exclaimed": 2925,
      "frag": 2926,
      "shells": 2927,
      "kinds": 2928,
      "mixed": 2929,
      "useful": 2930,
      "wiped": 2931,
      "lights": 2932,
      "poured": 2933,
      "soar": 2934,
      "##uth": 2935,
      "crack": 2936,
      "locked": 2937,
      "patch": 2938,
      "tools": 2939,
      "clock": 2940,
      "sounded": 2941,
      "egg": 2942,
      "stove": 2943,
      "explored": 2944,
      "##can": 2945,
      "##wards": 2946,
      "fre": 2947,
      "enc": 2948,
      "ducky": 2949,
      "##atter": 2950,
      "using": 2951,
      "george": 2952,
      "weal": 2953,
      "##isted": 2954,
      "times": 2955,
      "lab": 2956,
      "unlo": 2957,
      "above": 2958,
      "fountain": 2959,
      "dough": 2960,
      "print": 2961,
      "bags": 2962,
      "spoiled": 2963,
      "eng": 2964,
      "low": 2965,
      "showing": 2966,
      "œwh": 2967,
      "fragile": 2968,
      "themselves": 2969,
      "witch": 2970,
      "stumbled": 2971,
      "!\".": 2972,
      "bushes": 2973,
      "resc": 2974,
      "##dom": 2975,
      "independ": 2976,
      "fingers": 2977,
      "rep": 2978,
      "parrot": 2979,
      "thoughtful": 2980,
      "spinning": 2981,
      "dependable": 2982,
      "scrat": 2983,
      "smaller": 2984,
      "unk": 2985,
      "orig": 2986,
      "jolly": 2987,
      "playful": 2988,
      "bees": 2989,
      "cam": 2990,
      "helm": 2991,
      "raced": 2992,
      "delighted": 2993,
      "tele": 2994,
      "seem": 2995,
      "##inal": 2996,
      "earth": 2997,
      "brightly": 2998,
      "cop": 2999,
      "##ines": 3000,
      "gem": 3001,
      "steal": 3002,
      "rode": 3003,
      "enorm": 3004,
      "practice": 3005,
      "handed": 3006,
      "enormous": 3007,
      "roof": 3008,
      "built": 3009,
      "acorn": 3010,
      "cleaning": 3011,
      "beep": 3012,
      "admired": 3013,
      "twig": 3014,
      "kicked": 3015,
      "counted": 3016,
      "sniff": 3017,
      "ways": 3018,
      "toby": 3019,
      "changed": 3020,
      "mike": 3021,
      "original": 3022,
      "bitter": 3023,
      "##corn": 3024,
      "shone": 3025,
      "popcorn": 3026,
      "reminded": 3027,
      "independent": 3028,
      "hammer": 3029,
      "angel": 3030,
      "ol": 3031,
      "beak": 3032,
      "##ience": 3033,
      "œyes": 3034,
      "loll": 3035,
      "bean": 3036,
      "hoop": 3037,
      "unkn": 3038,
      "dove": 3039,
      "yet": 3040,
      "whispered": 3041,
      "##ither": 3042,
      "serious": 3043,
      "solve": 3044,
      "umb": 3045,
      "cone": 3046,
      "umbre": 3047,
      "tunn": 3048,
      "chose": 3049,
      "guard": 3050,
      "##anut": 3051,
      "peanut": 3052,
      "allowed": 3053,
      "dust": 3054,
      "hairy": 3055,
      "##ony": 3056,
      "mis": 3057,
      "stronger": 3058,
      "tummy": 3059,
      "potato": 3060,
      "yuck": 3061,
      "##ipop": 3062,
      "lollipop": 3063,
      "moder": 3064,
      "terrible": 3065,
      "sauce": 3066,
      "half": 3067,
      "brace": 3068,
      "boats": 3069,
      "unknown": 3070,
      "salad": 3071,
      "##erry": 3072,
      "painted": 3073,
      "bracelet": 3074,
      "pumpkin": 3075,
      "##ict": 3076,
      "joey": 3077,
      "##iable": 3078,
      "##pid": 3079,
      "finding": 3080,
      "toast": 3081,
      "wrap": 3082,
      "picking": 3083,
      "reliable": 3084,
      "leaving": 3085,
      "##under": 3086,
      "gasped": 3087,
      "clum": 3088,
      "joined": 3089,
      "strugg": 3090,
      "thinking": 3091,
      "bump": 3092,
      "compa": 3093,
      "tank": 3094,
      "post": 3095,
      "hay": 3096,
      "tor": 3097,
      "##iew": 3098,
      "sink": 3099,
      "stupid": 3100,
      "##inary": 3101,
      "thunder": 3102,
      "barber": 3103,
      "##het": 3104,
      "metal": 3105,
      "costum": 3106,
      "spring": 3107,
      "goose": 3108,
      "diam": 3109,
      "diamond": 3110,
      "dolphin": 3111,
      "ing": 3112,
      "##uring": 3113,
      "##robe": 3114,
      "view": 3115,
      "rubb": 3116,
      "##tern": 3117,
      "modern": 3118,
      "kim": 3119,
      "pirate": 3120,
      "forth": 3121,
      "##aghet": 3122,
      "##aghetti": 3123,
      "stamp": 3124,
      "spaghetti": 3125,
      "advice": 3126,
      "regular": 3127,
      "cheap": 3128,
      "flex": 3129,
      "kay": 3130,
      "paul": 3131,
      "wealthy": 3132,
      "rub": 3133,
      "sleeping": 3134,
      "zeb": 3135,
      "holds": 3136,
      "marble": 3137,
      "clumsy": 3138,
      "tu": 3139,
      "friendship": 3140,
      "##gu": 3141,
      "##par": 3142,
      "create": 3143,
      "##com": 3144,
      "œwhat": 3145,
      "zebra": 3146,
      "yarn": 3147,
      "nature": 3148,
      "polly": 3149,
      "twist": 3150,
      "##ugged": 3151,
      "magn": 3152,
      "ingred": 3153,
      "ingredient": 3154,
      "searching": 3155,
      "##ipp": 3156,
      "telling": 3157,
      "stairs": 3158,
      "nobody": 3159,
      "compass": 3160,
      "rushed": 3161,
      "march": 3162,
      "##ilty": 3163,
      "guilty": 3164,
      "andy": 3165,
      "stat": 3166,
      "crazy": 3167,
      "square": 3168,
      "mask": 3169,
      "chirp": 3170,
      "sophie": 3171,
      "arrow": 3172,
      "##ations": 3173,
      "bull": 3174,
      "fu": 3175,
      "opens": 3176,
      "engine": 3177,
      "beet": 3178,
      "ita": 3179,
      "design": 3180,
      "##shion": 3181,
      "graceful": 3182,
      "œit": 3183,
      "##io": 3184,
      "super": 3185,
      "flexible": 3186,
      "driving": 3187,
      "croco": 3188,
      "shiver": 3189,
      "speed": 3190,
      "##irsty": 3191,
      "alex": 3192,
      "camera": 3193,
      "umbrella": 3194,
      "hen": 3195,
      "pebble": 3196,
      "dull": 3197,
      "carrying": 3198,
      "popular": 3199,
      "reading": 3200,
      "truth": 3201,
      "crocod": 3202,
      "washed": 3203,
      "stage": 3204,
      "doesn": 3205,
      "deliver": 3206,
      "shel": 3207,
      "##ief": 3208,
      "missing": 3209,
      "##umbers": 3210,
      "sparkled": 3211,
      "ending": 3212,
      "seeds": 3213,
      "impressive": 3214,
      "meal": 3215,
      "##illa": 3216,
      "careless": 3217,
      "library": 3218,
      "destro": 3219,
      "fresh": 3220,
      "tied": 3221,
      "comb": 3222,
      "pige": 3223,
      "imagined": 3224,
      "reward": 3225,
      "hurry": 3226,
      "handle": 3227,
      "jacket": 3228,
      "cryst": 3229,
      "dreaming": 3230,
      "prize": 3231,
      "compassion": 3232,
      "pepper": 3233,
      "shocked": 3234,
      "butterflies": 3235,
      "load": 3236,
      "##ision": 3237,
      "rubbed": 3238,
      "##apped": 3239,
      "ingredients": 3240,
      "swe": 3241,
      "bigg": 3242,
      "encou": 3243,
      "##fish": 3244,
      "##anger": 3245,
      "œleta": 3246,
      "enth": 3247,
      "mole": 3248,
      "pattern": 3249,
      "##ibb": 3250,
      "poppy": 3251,
      "early": 3252,
      "stranger": 3253,
      "flashlight": 3254,
      "envel": 3255,
      "thirsty": 3256,
      "fork": 3257,
      "agree": 3258,
      "wheels": 3259,
      "persist": 3260,
      "charl": 3261,
      "desk": 3262,
      "##usi": 3263,
      "wire": 3264,
      "enthusi": 3265,
      "numbers": 3266,
      "gum": 3267,
      "order": 3268,
      "nurse": 3269,
      "mailbox": 3270,
      "rece": 3271,
      "temp": 3272,
      "pup": 3273,
      "discover": 3274,
      "pow": 3275,
      "pengu": 3276,
      "##reen": 3277,
      "##time": 3278,
      "##ric": 3279,
      "peeked": 3280,
      "ahead": 3281,
      "bloom": 3282,
      "torn": 3283,
      "rug": 3284,
      "spilled": 3285,
      "surf": 3286,
      "humble": 3287,
      "##up": 3288,
      "cere": 3289,
      "wing": 3290,
      "comput": 3291,
      "env": 3292,
      "stops": 3293,
      "object": 3294,
      "towers": 3295,
      "##bled": 3296,
      "sunflower": 3297,
      "sorts": 3298,
      "anx": 3299,
      "bent": 3300,
      "intell": 3301,
      "intellig": 3302,
      "counting": 3303,
      "cooking": 3304,
      "lau": 3305,
      "ja": 3306,
      "warned": 3307,
      "windows": 3308,
      "uncom": 3309,
      "spoke": 3310,
      "pale": 3311,
      "note": 3312,
      "uncomfortable": 3313,
      "placed": 3314,
      "travel": 3315,
      "##iches": 3316,
      "value": 3317,
      "beetle": 3318,
      "dea": 3319,
      "scale": 3320,
      "pant": 3321,
      "shut": 3322,
      "statue": 3323,
      "badly": 3324,
      "anxious": 3325,
      "deaf": 3326,
      "older": 3327,
      "compl": 3328,
      "slides": 3329,
      "mush": 3330,
      "scoot": 3331,
      "##rop": 3332,
      "growing": 3333,
      "biggest": 3334,
      "stack": 3335,
      "flute": 3336,
      "couldna": 3337,
      "complet": 3338,
      "celebrate": 3339,
      "raven": 3340,
      "tunnel": 3341,
      "nail": 3342,
      "crocodile": 3343,
      "scatter": 3344,
      "univer": 3345,
      "aid": 3346,
      "gh": 3347,
      "ghost": 3348,
      "cupboard": 3349,
      "harmless": 3350,
      "beauty": 3351,
      "crane": 3352,
      "sofa": 3353,
      "matt": 3354,
      "ot": 3355,
      "gloom": 3356,
      "perm": 3357,
      "exper": 3358,
      "fort": 3359,
      "muff": 3360,
      "flour": 3361,
      "quack": 3362,
      "persistent": 3363,
      "gifted": 3364,
      "trick": 3365,
      "tur": 3366,
      "charming": 3367,
      "yaw": 3368,
      "jumps": 3369,
      "pony": 3370,
      "hung": 3371,
      "skip": 3372,
      "si": 3373,
      "cereal": 3374,
      "courage": 3375,
      "refused": 3376,
      "pretending": 3377,
      "##een": 3378,
      "neat": 3379,
      "track": 3380,
      "han": 3381,
      "yay": 3382,
      "crystal": 3383,
      "names": 3384,
      "curt": 3385,
      "oct": 3386,
      "base": 3387,
      "triang": 3388,
      "sandy": 3389,
      "##opus": 3390,
      "octopus": 3391,
      "sandwiches": 3392,
      "##ices": 3393,
      "vi": 3394,
      "destroy": 3395,
      "spi": 3396,
      "ordinary": 3397,
      "camp": 3398,
      "snuggled": 3399,
      "curtain": 3400,
      "sett": 3401,
      "chasing": 3402,
      "question": 3403,
      "pian": 3404,
      "collar": 3405,
      "send": 3406,
      "crawl": 3407,
      "##used": 3408,
      "##pers": 3409,
      "envelope": 3410,
      "blueber": 3411,
      "drawer": 3412,
      "rules": 3413,
      "computer": 3414,
      "lively": 3415,
      "##ses": 3416,
      "mushroom": 3417,
      "bri": 3418,
      "carto": 3419,
      "gloomy": 3420,
      "repe": 3421,
      "intelligent": 3422,
      "ignor": 3423,
      "piano": 3424,
      "lizard": 3425,
      "shaking": 3426,
      "needle": 3427,
      "package": 3428,
      "vroom": 3429,
      "hunter": 3430,
      "œthat": 3431,
      "helmet": 3432,
      "##aches": 3433,
      "parade": 3434,
      "alert": 3435,
      "creatures": 3436,
      "fireman": 3437,
      "phot": 3438,
      "##ocer": 3439,
      "five": 3440,
      "twirled": 3441,
      "attract": 3442,
      "thief": 3443,
      "##stri": 3444,
      "seal": 3445,
      "miser": 3446,
      "station": 3447,
      "soldier": 3448,
      "miserable": 3449,
      "ostri": 3450,
      "henry": 3451,
      "ignorant": 3452,
      "buddy": 3453,
      "disg": 3454,
      "disgust": 3455,
      "brownie": 3456,
      "jet": 3457,
      "task": 3458,
      "anywhere": 3459,
      "bicy": 3460,
      "##ceed": 3461,
      "dug": 3462,
      "gir": 3463,
      "tooth": 3464,
      "club": 3465,
      "carp": 3466,
      "annie": 3467,
      "ener": 3468,
      "trap": 3469,
      "cap": 3470,
      "charlie": 3471,
      "wishes": 3472,
      "turkey": 3473,
      "##cond": 3474,
      "pasta": 3475,
      "vide": 3476,
      "second": 3477,
      "##iest": 3478,
      "led": 3479,
      "shine": 3480,
      "cricket": 3481,
      "chu": 3482,
      "radio": 3483,
      "everyday": 3484,
      "screen": 3485,
      "stickers": 3486,
      "bandage": 3487,
      "cocoa": 3488,
      "##cut": 3489,
      "helpless": 3490,
      "cube": 3491,
      "trash": 3492,
      "sin": 3493,
      "bounced": 3494,
      "giraff": 3495,
      "papa": 3496,
      "pigeon": 3497,
      "jeep": 3498,
      "chubby": 3499,
      "leash": 3500,
      "##ith": 3501,
      "otter": 3502,
      "practiced": 3503,
      "letters": 3504,
      "stretch": 3505,
      "chance": 3506,
      "attractive": 3507,
      "compassionate": 3508,
      "impat": 3509,
      "thread": 3510,
      "##gie": 3511,
      "stirred": 3512,
      "##keys": 3513,
      "jerry": 3514,
      "stretched": 3515,
      "pun": 3516,
      "##urb": 3517,
      "ten": 3518,
      "##heart": 3519,
      "gor": 3520,
      "somewhere": 3521,
      "further": 3522,
      "tweetie": 3523,
      "trump": 3524,
      "broc": 3525,
      "broccol": 3526,
      "disturb": 3527,
      "decorate": 3528,
      "hipp": 3529,
      "broccoli": 3530,
      "jug": 3531,
      "##orable": 3532,
      "competitive": 3533,
      "tire": 3534,
      "waff": 3535,
      "brighter": 3536,
      "impatient": 3537,
      "case": 3538,
      "succeed": 3539,
      "steps": 3540,
      "knock": 3541,
      "respectful": 3542,
      "leop": 3543,
      "##arian": 3544,
      "sweetheart": 3545,
      "troubled": 3546,
      "candle": 3547,
      "era": 3548,
      "mug": 3549,
      "lilly": 3550,
      "pressed": 3551,
      "spir": 3552,
      "attic": 3553,
      "itself": 3554,
      "allig": 3555,
      "##noon": 3556,
      "afternoon": 3557,
      "restless": 3558,
      "quar": 3559,
      "starts": 3560,
      "dess": 3561,
      "nuts": 3562,
      "disgusting": 3563,
      "##kers": 3564,
      "carpet": 3565,
      "##az": 3566,
      "adorable": 3567,
      "comfort": 3568,
      "ribb": 3569,
      "danny": 3570,
      "shoe": 3571,
      "vine": 3572,
      "##aurant": 3573,
      "anyway": 3574,
      "restaurant": 3575,
      "fearful": 3576,
      "pants": 3577,
      "shouts": 3578,
      "ostrich": 3579,
      "screw": 3580,
      "tray": 3581,
      "envious": 3582,
      "distant": 3583,
      "filthy": 3584,
      "cards": 3585,
      "summer": 3586,
      "##icop": 3587,
      "helicop": 3588,
      "helicopter": 3589,
      "monkeys": 3590,
      "enthusiastic": 3591,
      "giggle": 3592,
      "math": 3593,
      "##night": 3594,
      "trumpet": 3595,
      "hook": 3596,
      "dear": 3597,
      "zi": 3598,
      "lee": 3599,
      "por": 3600,
      "cooked": 3601,
      "ants": 3602,
      "dona": 3603,
      "poem": 3604,
      "meas": 3605,
      "harsh": 3606,
      "kang": 3607,
      "lightning": 3608,
      "paws": 3609,
      "sandbox": 3610,
      "spell": 3611,
      "##ips": 3612,
      "spirit": 3613,
      "##aroo": 3614,
      "kangaroo": 3615,
      "##case": 3616,
      "listening": 3617,
      "scooter": 3618,
      "nowhere": 3619,
      "squash": 3620,
      "belt": 3621,
      "leopard": 3622,
      "unpack": 3623,
      "pipe": 3624,
      "explain": 3625,
      "batht": 3626,
      "backpack": 3627,
      "country": 3628,
      "admire": 3629,
      "sent": 3630,
      "cows": 3631,
      "aer": 3632,
      "viol": 3633,
      "comet": 3634,
      "melt": 3635,
      "##cycle": 3636,
      "firework": 3637,
      "##opl": 3638,
      "bathtub": 3639,
      "aeropl": 3640,
      "repair": 3641,
      "speak": 3642,
      "lid": 3643,
      "maria": 3644,
      "quite": 3645,
      "barking": 3646,
      "##stairs": 3647,
      "gorilla": 3648,
      "separ": 3649,
      "mim": 3650,
      "jellyfish": 3651,
      "vol": 3652,
      "jess": 3653,
      "whiskers": 3654,
      "millie": 3655,
      "bicycle": 3656,
      "happier": 3657,
      "fle": 3658,
      "breat": 3659,
      "panda": 3660,
      "modest": 3661,
      "pilot": 3662,
      "human": 3663,
      "hed": 3664,
      "support": 3665,
      "mule": 3666,
      "stared": 3667,
      "salt": 3668,
      "message": 3669,
      "didna": 3670,
      "meat": 3671,
      "grabs": 3672,
      "yogurt": 3673,
      "hippo": 3674,
      "sort": 3675,
      "mimi": 3676,
      "kate": 3677,
      "impro": 3678,
      "oat": 3679,
      "given": 3680,
      "ur": 3681,
      "##xi": 3682,
      "batt": 3683,
      "##hood": 3684,
      "leta": 3685,
      "dessert": 3686,
      "split": 3687,
      "cats": 3688,
      "obser": 3689,
      "alligator": 3690,
      "paid": 3691,
      "wheat": 3692,
      "finds": 3693,
      "hedge": 3694,
      "harry": 3695,
      "melon": 3696,
      "violin": 3697,
      "pal": 3698,
      "##me": 3699,
      "rescue": 3700,
      "ped": 3701,
      "##ci": 3702,
      "swinging": 3703,
      "cact": 3704,
      "pulls": 3705,
      "tripped": 3706,
      "however": 3707,
      "organize": 3708,
      "size": 3709,
      "prov": 3710,
      "rice": 3711,
      "holes": 3712,
      "behave": 3713,
      "##ogn": 3714,
      "riding": 3715,
      "roared": 3716,
      "shade": 3717,
      "hall": 3718,
      "forgave": 3719,
      "pushing": 3720,
      "triangle": 3721,
      "recogn": 3722,
      "mild": 3723,
      "bin": 3724,
      "purse": 3725,
      "bikes": 3726,
      "inse": 3727,
      "sheet": 3728,
      "##hone": 3729,
      "lions": 3730,
      "tuna": 3731,
      "##ac": 3732,
      "raft": 3733,
      "sle": 3734,
      "starting": 3735,
      "haircut": 3736,
      "scold": 3737,
      "bananas": 3738,
      "sock": 3739,
      "twink": 3740,
      "brus": 3741,
      "silver": 3742,
      "œyou": 3743,
      "knot": 3744,
      "energy": 3745,
      "rod": 3746,
      "bears": 3747,
      "either": 3748,
      "cactus": 3749,
      "volcan": 3750,
      "##bul": 3751,
      "trains": 3752,
      "frowned": 3753,
      "lear": 3754,
      "seeing": 3755,
      "##chy": 3756,
      "learnt": 3757,
      "boots": 3758,
      "##aled": 3759,
      "porch": 3760,
      "jokes": 3761,
      "lend": 3762,
      "volcano": 3763,
      "chalk": 3764,
      "taxi": 3765,
      "strawberry": 3766,
      "##seum": 3767,
      "museum": 3768,
      "pole": 3769,
      "prun": 3770,
      "##ebook": 3771,
      "notebook": 3772,
      "appre": 3773,
      "ended": 3774,
      "sticker": 3775,
      "##ucked": 3776,
      "evening": 3777,
      "cel": 3778,
      "papers": 3779,
      "wallet": 3780,
      "rolling": 3781,
      "palace": 3782,
      "appreci": 3783,
      "judge": 3784,
      "imagine": 3785,
      "chain": 3786,
      "sweater": 3787,
      "ink": 3788,
      "steak": 3789,
      "pad": 3790,
      "tony": 3791,
      "comf": 3792,
      "shopkeeper": 3793,
      "reind": 3794,
      "reinde": 3795,
      "pit": 3796,
      "climbing": 3797,
      "avoc": 3798,
      "barrel": 3799,
      "sprink": 3800,
      "microp": 3801,
      "ins": 3802,
      "since": 3803,
      "shakes": 3804,
      "##chan": 3805,
      "james": 3806,
      "laund": 3807,
      "##icer": 3808,
      "rever": 3809,
      "smells": 3810,
      "##ffee": 3811,
      "##ooped": 3812,
      "resist": 3813,
      "##urch": 3814,
      "alive": 3815,
      "goal": 3816,
      "magnet": 3817,
      "trop": 3818,
      "laundry": 3819,
      "neighbour": 3820,
      "clapping": 3821,
      "coffee": 3822,
      "rh": 3823,
      "putting": 3824,
      "tube": 3825,
      "penguin": 3826,
      "softly": 3827,
      "sailor": 3828,
      "##form": 3829,
      "microphone": 3830,
      "pushes": 3831,
      "visited": 3832,
      "##iling": 3833,
      "tricks": 3834,
      "shield": 3835,
      "hive": 3836,
      "##play": 3837,
      "drawings": 3838,
      "sir": 3839,
      "airport": 3840,
      "falling": 3841,
      "shelter": 3842,
      "peek": 3843,
      "reindeer": 3844,
      "colours": 3845,
      "leaned": 3846,
      "zoomed": 3847,
      "saus": 3848,
      "shovel": 3849,
      "quarrel": 3850,
      "checked": 3851,
      "##very": 3852,
      "oy": 3853,
      "marry": 3854,
      "rhin": 3855,
      "belongs": 3856,
      "display": 3857,
      "shrimp": 3858,
      "herb": 3859,
      "disc": 3860,
      "polish": 3861,
      "winter": 3862,
      "celery": 3863,
      "ambul": 3864,
      "kat": 3865,
      "maggie": 3866,
      "avail": 3867,
      "marched": 3868,
      "dive": 3869,
      "pair": 3870,
      "grapes": 3871,
      "aeroplane": 3872,
      "loop": 3873,
      "##cast": 3874,
      "wool": 3875,
      "dishes": 3876,
      "yach": 3877,
      "planet": 3878,
      "barks": 3879,
      "##happy": 3880,
      "##uli": 3881,
      "fields": 3882,
      "elev": 3883,
      "sandcast": 3884,
      "soil": 3885,
      "trophy": 3886,
      "ambulance": 3887,
      "apologized": 3888,
      "skill": 3889,
      "hoping": 3890,
      "costume": 3891,
      "onion": 3892,
      "fisher": 3893,
      "rubber": 3894,
      "god": 3895,
      "available": 3896,
      "film": 3897,
      "unlock": 3898,
      "ske": 3899,
      "feelings": 3900,
      "##ense": 3901,
      "drops": 3902,
      "short": 3903,
      "quit": 3904,
      "men": 3905,
      "tap": 3906,
      "unhappy": 3907,
      "cord": 3908,
      "stom": 3909,
      "incl": 3910,
      "medal": 3911,
      "art": 3912,
      "yacht": 3913,
      "page": 3914,
      "eraser": 3915,
      "elevator": 3916,
      "bul": 3917,
      "basketball": 3918,
      "€“": 3919,
      "raining": 3920,
      "mechan": 3921,
      "minute": 3922,
      "mechanic": 3923,
      "baking": 3924,
      "spike": 3925,
      "flies": 3926,
      "complete": 3927,
      "perfectly": 3928,
      "##ages": 3929,
      "diary": 3930,
      "##nam": 3931,
      "hadn": 3932,
      "eagerly": 3933,
      "ray": 3934,
      "insect": 3935,
      "cardboard": 3936,
      "player": 3937,
      "fog": 3938,
      "magaz": 3939,
      "closely": 3940,
      "clara": 3941,
      "blin": 3942,
      "vend": 3943,
      "journal": 3944,
      "yoga": 3945,
      "glove": 3946,
      "smith": 3947,
      "frogs": 3948,
      "##eath": 3949,
      "disag": 3950,
      "furn": 3951,
      "##iture": 3952,
      "furniture": 3953,
      "tut": 3954,
      "church": 3955,
      "bulb": 3956,
      "tub": 3957,
      "stuffed": 3958,
      "imagination": 3959,
      "skull": 3960,
      "treasures": 3961,
      "freez": 3962,
      "cooler": 3963,
      "breaks": 3964,
      "headed": 3965,
      "bree": 3966,
      "jul": 3967,
      "lie": 3968,
      "oil": 3969,
      "factor": 3970,
      "wife": 3971,
      "coal": 3972,
      "peach": 3973,
      "golf": 3974,
      "counter": 3975,
      "mos": 3976,
      "##gen": 3977,
      "flame": 3978,
      "football": 3979,
      "knob": 3980,
      "##quit": 3981,
      "##ween": 3982,
      "mosquit": 3983,
      "between": 3984,
      "offer": 3985,
      "sunset": 3986,
      "factory": 3987,
      "switch": 3988,
      "cheek": 3989,
      "cauli": 3990,
      "boo": 3991,
      "rag": 3992,
      "painter": 3993,
      "hors": 3994,
      "##place": 3995,
      "pirates": 3996,
      "swung": 3997,
      "##ides": 3998,
      "cups": 3999,
      "motorcycle": 4000,
      "shouldn": 4001,
      "disappear": 4002,
      "mosquito": 4003,
      "##zzy": 4004,
      "##ories": 4005,
      "hotel": 4006,
      "shouting": 4007,
      "##right": 4008,
      "hut": 4009,
      "mop": 4010,
      "œn": 4011,
      "mixer": 4012,
      "ia": 4013,
      "ornam": 4014,
      "ornament": 4015,
      "blowing": 4016,
      "sung": 4017,
      "vendor": 4018,
      "soc": 4019,
      "rot": 4020,
      "skelet": 4021,
      "laser": 4022,
      "folder": 4023,
      "rele": 4024,
      "fisherman": 4025,
      "video": 4026,
      "giraffe": 4027,
      "soccer": 4028,
      "##izes": 4029,
      "heads": 4030,
      "##bol": 4031,
      "throws": 4032,
      "frame": 4033,
      "##rect": 4034,
      "created": 4035,
      "wipe": 4036,
      "greed": 4037,
      "cauliflower": 4038,
      "cable": 4039,
      "sym": 4040,
      "symbol": 4041,
      "cushion": 4042,
      "horses": 4043,
      "##angu": 4044,
      "langu": 4045,
      "attention": 4046,
      "rhinocer": 4047,
      "anch": 4048,
      "battery": 4049,
      "fishing": 4050,
      "rhinoceros": 4051,
      "popped": 4052,
      "##uc": 4053,
      "capt": 4054,
      "ax": 4055,
      "poke": 4056,
      "stud": 4057,
      "##sses": 4058,
      "accep": 4059,
      "weather": 4060,
      "œo": 4061,
      "maze": 4062,
      "jazz": 4063,
      "forgotten": 4064,
      "##render": 4065,
      "trail": 4066,
      "flea": 4067,
      "powder": 4068,
      "lives": 4069,
      "celebrated": 4070,
      "gear": 4071,
      "sneak": 4072,
      "rosie": 4073,
      "surround": 4074,
      "##rod": 4075,
      "luckily": 4076,
      "surrender": 4077,
      "waving": 4078,
      "im": 4079,
      "photo": 4080,
      "introd": 4081,
      "swamp": 4082,
      "slept": 4083,
      "kingdom": 4084,
      "iron": 4085,
      "pine": 4086,
      "##unately": 4087,
      "point": 4088,
      "sub": 4089,
      "##loo": 4090,
      "tutor": 4091,
      "encoura": 4092,
      "points": 4093,
      "tina": 4094,
      "glowing": 4095,
      "skeleton": 4096,
      "fireplace": 4097,
      "breeze": 4098,
      "claw": 4099,
      "alright": 4100,
      "vet": 4101,
      "squirrels": 4102,
      "memories": 4103,
      "batter": 4104,
      "anchor": 4105,
      "##ckey": 4106,
      "##lasses": 4107,
      "sunglasses": 4108,
      "hockey": 4109,
      "streng": 4110,
      "reve": 4111,
      "vest": 4112,
      "mistakes": 4113,
      "dancer": 4114,
      "ga": 4115,
      "bang": 4116,
      "baseball": 4117,
      "parent": 4118,
      "chickens": 4119,
      "complain": 4120,
      "slipp": 4121,
      "zipper": 4122,
      "petals": 4123,
      "newsp": 4124,
      "newspap": 4125,
      "igloo": 4126,
      "axe": 4127,
      "greedy": 4128,
      "strength": 4129,
      "micro": 4130,
      "ceiling": 4131,
      "##ef": 4132,
      "##hero": 4133,
      "superhero": 4134,
      "grin": 4135,
      "hanging": 4136,
      "##chie": 4137,
      "writing": 4138,
      "microsc": 4139,
      "golden": 4140,
      "staff": 4141,
      "napkin": 4142,
      "bury": 4143,
      "chess": 4144,
      "sniffed": 4145,
      "##ney": 4146,
      "argue": 4147,
      "trave": 4148,
      "doggy": 4149,
      "musician": 4150,
      "##ache": 4151,
      "eaten": 4152,
      "discu": 4153,
      "temple": 4154,
      "theater": 4155,
      "skirt": 4156,
      "##medi": 4157,
      "puddles": 4158,
      "immedi": 4159,
      "lime": 4160,
      "microscope": 4161,
      "bouncing": 4162,
      "novel": 4163,
      "immediately": 4164,
      "œd": 4165,
      "seas": 4166,
      "uniform": 4167,
      "radish": 4168,
      "miner": 4169,
      "snowy": 4170,
      "meeting": 4171,
      "pist": 4172,
      "quietly": 4173,
      "myst": 4174,
      "shoulder": 4175,
      "welcomed": 4176,
      "lawy": 4177,
      "throwing": 4178,
      "##vent": 4179,
      "##ssible": 4180,
      "pistol": 4181,
      "invest": 4182,
      "plastic": 4183,
      "cob": 4184,
      "slippery": 4185,
      "##erc": 4186,
      "flapped": 4187,
      "lotion": 4188,
      "accepted": 4189,
      "investig": 4190,
      "fought": 4191,
      "##chair": 4192,
      "avocado": 4193,
      "##aking": 4194,
      "doors": 4195,
      "cub": 4196,
      "kayak": 4197,
      "during": 4198,
      "calls": 4199,
      "##reek": 4200,
      "creek": 4201,
      "##ipping": 4202,
      "sticky": 4203,
      "mattress": 4204,
      "exerc": 4205,
      "mystery": 4206,
      "isn": 4207,
      "spear": 4208,
      "moves": 4209,
      "suff": 4210,
      "makeup": 4211,
      "freezer": 4212,
      "reef": 4213,
      "yield": 4214,
      "##te": 4215,
      "cared": 4216,
      "##house": 4217,
      "##arm": 4218,
      "##ison": 4219,
      "fauc": 4220,
      "##ler": 4221,
      "vall": 4222,
      "news": 4223,
      "beef": 4224,
      "wigg": 4225,
      "oak": 4226,
      "armchair": 4227,
      "cherries": 4228,
      "sailing": 4229,
      "œm": 4230,
      "oyster": 4231,
      "tug": 4232,
      "zo": 4233,
      "##was": 4234,
      "appla": 4235,
      "##web": 4236,
      "splashing": 4237,
      "œita": 4238,
      "investigate": 4239,
      "crib": 4240,
      "faucet": 4241,
      "wags": 4242,
      "toil": 4243,
      "chim": 4244,
      "dishwas": 4245,
      "ticket": 4246,
      "dishwasher": 4247,
      "cobweb": 4248,
      "weigh": 4249,
      "regret": 4250,
      "worth": 4251,
      "applaud": 4252,
      "ble": 4253,
      "collected": 4254,
      "passport": 4255,
      "prevent": 4256,
      "magazine": 4257,
      "presents": 4258,
      "tip": 4259,
      "freddy": 4260,
      "happens": 4261,
      "sprayed": 4262,
      "mint": 4263,
      "alarm": 4264,
      "separate": 4265,
      "castles": 4266,
      "veil": 4267,
      "##esday": 4268,
      "entered": 4269,
      "shrugged": 4270,
      "toilet": 4271,
      "captain": 4272,
      "lawyer": 4273,
      "scolded": 4274,
      "rake": 4275,
      "muffin": 4276,
      "raz": 4277,
      "attach": 4278,
      "yum": 4279,
      "meow": 4280,
      "ruby": 4281,
      "chimney": 4282,
      "shrink": 4283,
      "blankets": 4284,
      "sparkle": 4285,
      "tucked": 4286,
      "candles": 4287,
      "ignored": 4288,
      "flutter": 4289,
      "choice": 4290,
      "hopes": 4291,
      "kisses": 4292,
      "coats": 4293,
      "milly": 4294,
      "##ob": 4295,
      "appro": 4296,
      "follows": 4297,
      "classroom": 4298,
      "missile": 4299,
      "apart": 4300,
      "##sit": 4301,
      "easily": 4302,
      "keeping": 4303,
      "letting": 4304,
      "chairs": 4305,
      "planes": 4306,
      "rise": 4307,
      "accept": 4308,
      "burned": 4309,
      "language": 4310,
      "##mand": 4311,
      "straight": 4312,
      "bother": 4313,
      "dressed": 4314,
      "veter": 4315,
      "cane": 4316,
      "aut": 4317,
      "cell": 4318,
      "ward": 4319,
      "caring": 4320,
      "##inarian": 4321,
      "veterinarian": 4322,
      "##act": 4323,
      "jewelry": 4324,
      "trusted": 4325,
      "olive": 4326,
      "sizes": 4327,
      "##men": 4328,
      "teleph": 4329,
      "shower": 4330,
      "claws": 4331,
      "requ": 4332,
      "wardrobe": 4333,
      "opera": 4334,
      "wed": 4335,
      "trade": 4336,
      "blinked": 4337,
      "incre": 4338,
      "##iday": 4339,
      "pur": 4340,
      "puzzles": 4341,
      "##mer": 4342,
      "stable": 4343,
      "cabinet": 4344,
      "lawn": 4345,
      "crossed": 4346,
      "bookshe": 4347,
      "newspaper": 4348,
      "tornado": 4349,
      "##ives": 4350,
      "##ement": 4351,
      "stro": 4352,
      "perfu": 4353,
      "telephone": 4354,
      "##vision": 4355,
      "sigh": 4356,
      "##ray": 4357,
      "##mend": 4358,
      "##inking": 4359,
      "rooms": 4360,
      "razor": 4361,
      "blueberries": 4362,
      "##ival": 4363,
      "squeeze": 4364,
      "bookcase": 4365,
      "##eas": 4366,
      "subway": 4367,
      "##anges": 4368,
      "delay": 4369,
      "##ampoo": 4370,
      "shampoo": 4371,
      "steam": 4372,
      "recom": 4373,
      "valley": 4374,
      "recommend": 4375,
      "amazement": 4376,
      "cale": 4377,
      "lumber": 4378,
      "grill": 4379,
      "squeezed": 4380,
      "mustache": 4381,
      "##orted": 4382,
      "bookshelf": 4383,
      "gym": 4384,
      "pra": 4385,
      "crawling": 4386,
      "following": 4387,
      "blood": 4388,
      "unfort": 4389,
      "crow": 4390,
      "television": 4391,
      "fuel": 4392,
      "reverse": 4393,
      "matches": 4394,
      "perfume": 4395,
      "hol": 4396,
      "cliff": 4397,
      "file": 4398,
      "blouse": 4399,
      "pinch": 4400,
      "improve": 4401,
      "serve": 4402,
      "holiday": 4403,
      "poked": 4404,
      "€.": 4405,
      "##ety": 4406,
      "##iction": 4407,
      "##omes": 4408,
      "crash": 4409,
      "licks": 4410,
      "fest": 4411,
      "diction": 4412,
      "experience": 4413,
      "demand": 4414,
      "ringing": 4415,
      "helper": 4416,
      "berry": 4417,
      "snap": 4418,
      "worms": 4419,
      "waste": 4420,
      "dictionary": 4421,
      "ou": 4422,
      "unfortunately": 4423,
      "row": 4424,
      "ribbon": 4425,
      "prop": 4426,
      "rabbits": 4427,
      "katie": 4428,
      "sneeze": 4429,
      "yucky": 4430,
      "growled": 4431,
      "birdc": 4432,
      "begged": 4433,
      "ignore": 4434,
      "ideas": 4435,
      "warmth": 4436,
      "invite": 4437,
      "birdcage": 4438,
      "##ndar": 4439,
      "below": 4440,
      "##hic": 4441,
      "vehic": 4442,
      "weep": 4443,
      "calendar": 4444,
      "married": 4445,
      "ollie": 4446,
      "##lier": 4447,
      "recei": 4448,
      "kneel": 4449,
      "instr": 4450,
      "fallen": 4451,
      "enter": 4452,
      "rail": 4453,
      "moments": 4454,
      "bravely": 4455,
      "pastry": 4456,
      "laught": 4457,
      "refre": 4458,
      "oas": 4459,
      "surprises": 4460,
      "safety": 4461,
      "##cus": 4462,
      "struct": 4463,
      "œno": 4464,
      "structure": 4465,
      "oasis": 4466,
      "sparkles": 4467,
      "junk": 4468,
      "root": 4469,
      "understanding": 4470,
      "laughter": 4471,
      "wandered": 4472,
      "##ising": 4473,
      "hurting": 4474,
      "drain": 4475,
      "hearts": 4476,
      "pages": 4477,
      "##omeday": 4478,
      "float": 4479,
      "someday": 4480,
      "airpl": 4481,
      "buckle": 4482,
      "harb": 4483,
      "autom": 4484,
      "ups": 4485,
      "item": 4486,
      "admir": 4487,
      "bathe": 4488,
      "automob": 4489,
      "strawberries": 4490,
      "buried": 4491,
      "apron": 4492,
      "reaches": 4493,
      "inf": 4494,
      "whip": 4495,
      "mys": 4496,
      "quiz": 4497,
      "festival": 4498,
      "##chel": 4499,
      "myself": 4500,
      "relaxed": 4501,
      "score": 4502,
      "sandcastle": 4503,
      "plates": 4504,
      "skills": 4505,
      "##aked": 4506,
      "raise": 4507,
      "invit": 4508,
      "steve": 4509,
      "asht": 4510,
      "spade": 4511,
      "rachel": 4512,
      "ashtray": 4513,
      "direct": 4514,
      "ouch": 4515,
      "dar": 4516,
      "lic": 4517,
      "dare": 4518,
      "beamed": 4519,
      "betsy": 4520,
      "snapped": 4521,
      "##riger": 4522,
      "refriger": 4523,
      "earlier": 4524,
      "supply": 4525,
      "socks": 4526,
      "weap": 4527,
      "vac": 4528,
      "mass": 4529,
      "wag": 4530,
      "received": 4531,
      "##cakes": 4532,
      "refrigerator": 4533,
      "harbor": 4534,
      "tong": 4535,
      "model": 4536,
      "teaching": 4537,
      "spots": 4538,
      "jail": 4539,
      "!'": 4540,
      "thumb": 4541,
      "saving": 4542,
      "toes": 4543,
      "sparkling": 4544,
      "vanished": 4545,
      "##pare": 4546,
      "balan": 4547,
      "insisted": 4548,
      "waffle": 4549,
      "bumped": 4550,
      "prepare": 4551,
      "none": 4552,
      "abig": 4553,
      "spending": 4554,
      "dried": 4555,
      "jewels": 4556,
      "frank": 4557,
      "lemonade": 4558,
      "blackboard": 4559,
      "boot": 4560,
      "dav": 4561,
      "fro": 4562,
      "known": 4563,
      "##ission": 4564,
      "breathe": 4565,
      "##ium": 4566,
      "scattered": 4567,
      "remain": 4568,
      "permission": 4569,
      "settled": 4570,
      "scooped": 4571,
      "abigail": 4572,
      "replace": 4573,
      "encouraged": 4574,
      "wisdom": 4575,
      "yawned": 4576,
      "##amber": 4577,
      "bathrobe": 4578,
      "wine": 4579,
      "tease": 4580,
      "destroyed": 4581,
      "achie": 4582,
      "hanger": 4583,
      "remove": 4584,
      "port": 4585,
      "beans": 4586,
      "mall": 4587,
      "pulling": 4588,
      "hardly": 4589,
      "pride": 4590,
      "hate": 4591,
      "##antly": 4592,
      "license": 4593,
      "##sters": 4594,
      "sits": 4595,
      "decorations": 4596,
      "poison": 4597,
      "œhe": 4598,
      "simp": 4599,
      "cuddled": 4600,
      "afterwards": 4601,
      "wiz": 4602,
      "washing": 4603,
      "nation": 4604,
      "rhy": 4605,
      "mmm": 4606,
      "repeat": 4607,
      "david": 4608,
      "respons": 4609,
      "mention": 4610,
      "##fied": 4611,
      "suffer": 4612,
      "praised": 4613,
      "equ": 4614,
      "crun": 4615,
      "chirping": 4616,
      "hits": 4617,
      "##xture": 4618,
      "snowball": 4619,
      "appreciate": 4620,
      "buzzing": 4621,
      "patiently": 4622,
      "fastest": 4623,
      "dresses": 4624,
      "automobile": 4625,
      "flav": 4626,
      "cartoon": 4627,
      "warning": 4628,
      "bleed": 4629,
      "##nies": 4630,
      "##sity": 4631,
      "digg": 4632,
      "label": 4633,
      "palm": 4634,
      "##asp": 4635,
      "destination": 4636,
      "taller": 4637,
      "restore": 4638,
      "homes": 4639,
      "glo": 4640,
      "climbs": 4641,
      "frost": 4642,
      "hesit": 4643,
      "sausage": 4644,
      "##aces": 4645,
      "shot": 4646,
      "digging": 4647,
      "believed": 4648,
      "infant": 4649,
      "approached": 4650,
      "wizard": 4651,
      "brain": 4652,
      "proper": 4653,
      "œthank": 4654,
      "university": 4655,
      "tore": 4656,
      "deeper": 4657,
      "mitten": 4658,
      "ke": 4659,
      "compan": 4660,
      "hers": 4661,
      "heat": 4662,
      "chamber": 4663,
      "firef": 4664,
      "rust": 4665,
      "chore": 4666,
      "punish": 4667,
      "sport": 4668,
      "cherry": 4669,
      "struggling": 4670,
      "universe": 4671,
      "upstairs": 4672,
      "hills": 4673,
      "discuss": 4674,
      "billboard": 4675,
      "pillows": 4676,
      "tongue": 4677,
      "ther": 4678,
      "panic": 4679,
      "therm": 4680,
      "thrilled": 4681,
      "provide": 4682,
      "sneezed": 4683,
      "##bey": 4684,
      "jan": 4685,
      "vacation": 4686,
      "anytime": 4687,
      "awe": 4688,
      "##ents": 4689,
      "##osed": 4690,
      "tour": 4691,
      "twisted": 4692,
      "shooting": 4693,
      "'.": 4694,
      "glowed": 4695,
      "hurric": 4696,
      "worse": 4697,
      "hurricane": 4698,
      "sprinkles": 4699,
      "##ude": 4700,
      "sty": 4701,
      "parts": 4702,
      "shed": 4703,
      "solved": 4704,
      "thermomet": 4705,
      "##osity": 4706,
      "weeks": 4707,
      "examine": 4708,
      "setting": 4709,
      "oranges": 4710,
      "##allen": 4711,
      "airplane": 4712,
      "wherever": 4713,
      "remained": 4714,
      "ranch": 4715,
      "plays": 4716,
      "challen": 4717,
      "chores": 4718,
      "neighborhood": 4719,
      "##shing": 4720,
      "##ring": 4721,
      "floated": 4722,
      "thermometer": 4723,
      "leak": 4724,
      "##thm": 4725,
      "rhythm": 4726,
      "floating": 4727,
      "paints": 4728,
      "copper": 4729,
      "grey": 4730,
      "bites": 4731,
      "fixing": 4732,
      "girls": 4733,
      "##adium": 4734,
      "stadium": 4735,
      "measured": 4736,
      "everybody": 4737,
      "memory": 4738,
      "conf": 4739,
      "massage": 4740,
      "surrounded": 4741,
      "grinned": 4742,
      "exercise": 4743,
      "fasc": 4744,
      "supposed": 4745,
      "sew": 4746,
      "teasp": 4747,
      "teaspoon": 4748,
      "gifts": 4749,
      "paused": 4750,
      "brings": 4751,
      "fut": 4752,
      "actually": 4753,
      "sunr": 4754,
      "future": 4755,
      "signs": 4756,
      "!\",": 4757,
      "zoe": 4758,
      "œia": 4759,
      "elephants": 4760,
      "collection": 4761,
      "marbles": 4762,
      "stomach": 4763,
      "##son": 4764,
      "##icing": 4765,
      "gust": 4766,
      "tide": 4767,
      "flood": 4768,
      "##sing": 4769,
      "includ": 4770,
      "sunrise": 4771,
      "discovery": 4772,
      "mailman": 4773,
      "rush": 4774,
      "vehicle": 4775,
      "bes": 4776,
      "beg": 4777,
      "toe": 4778,
      "beth": 4779,
      "urge": 4780,
      "chr": 4781,
      "œthata": 4782,
      "##ari": 4783,
      "mister": 4784,
      "##elv": 4785,
      "unite": 4786,
      "scratch": 4787,
      "meowed": 4788,
      "strang": 4789,
      "velv": 4790,
      "tomatoes": 4791,
      "##ab": 4792,
      "lugg": 4793,
      "weapon": 4794,
      "jogging": 4795,
      "fascin": 4796,
      "decision": 4797,
      "chewed": 4798,
      "observe": 4799,
      "cartoons": 4800,
      "##ishing": 4801,
      "luggage": 4802,
      "zig": 4803,
      "velvet": 4804,
      "##nie": 4805,
      "scur": 4806,
      "##nday": 4807,
      "grape": 4808,
      "sore": 4809,
      "sunlight": 4810,
      "possible": 4811,
      "skipping": 4812,
      "##iers": 4813,
      "collecting": 4814,
      "choo": 4815,
      "remy": 4816,
      "mineral": 4817,
      "cakes": 4818,
      "folded": 4819,
      "curled": 4820,
      "##ities": 4821,
      "sliding": 4822,
      "lets": 4823,
      "melted": 4824,
      "chirped": 4825,
      "spill": 4826,
      "sip": 4827,
      "beat": 4828,
      "keeper": 4829,
      "oper": 4830,
      "##uing": 4831,
      "itch": 4832,
      "luna": 4833,
      "problems": 4834,
      "appear": 4835,
      "robb": 4836,
      "satis": 4837,
      "difference": 4838,
      "squeak": 4839,
      "mountains": 4840,
      "navy": 4841,
      "tracks": 4842,
      "zer": 4843,
      "fet": 4844,
      "##bers": 4845,
      "manage": 4846,
      "growl": 4847,
      "##umble": 4848,
      "eag": 4849,
      "equip": 4850,
      "equipment": 4851,
      "lick": 4852,
      "admiring": 4853,
      "bricks": 4854,
      "potatoes": 4855,
      "bak": 4856,
      "laid": 4857,
      "whistling": 4858,
      "watered": 4859,
      "contain": 4860,
      "nina": 4861,
      "thom": 4862,
      "soldiers": 4863,
      "twigs": 4864,
      "gran": 4865,
      "hist": 4866,
      "patterns": 4867,
      "gain": 4868,
      "##xy": 4869,
      "kindly": 4870,
      "petted": 4871,
      "seats": 4872,
      "zero": 4873,
      "emer": 4874,
      "prune": 4875,
      "spaces": 4876,
      "pigs": 4877,
      "history": 4878,
      "receive": 4879,
      "gloves": 4880,
      "##do": 4881,
      "sunday": 4882,
      "overjoy": 4883,
      "strangers": 4884,
      "overjoyed": 4885,
      "slice": 4886,
      "officer": 4887,
      "continue": 4888,
      "beside": 4889,
      "##ipe": 4890,
      "zipped": 4891,
      "ordered": 4892,
      "eagle": 4893,
      "##oved": 4894,
      "safari": 4895,
      "##eren": 4896,
      "watches": 4897,
      "goodnight": 4898,
      "gotten": 4899,
      "accidents": 4900,
      "network": 4901,
      "spit": 4902,
      "marching": 4903,
      "##walk": 4904,
      "thomas": 4905,
      "earthqu": 4906,
      "lands": 4907,
      "explor": 4908,
      "prayed": 4909,
      "flap": 4910,
      "vict": 4911,
      "brid": 4912,
      "..": 4913,
      "peered": 4914,
      "acorns": 4915,
      "eff": 4916,
      "ours": 4917,
      "chlo": 4918,
      "##bbled": 4919,
      "invitation": 4920,
      "josh": 4921,
      "##mother": 4922,
      "weight": 4923,
      "julie": 4924,
      "len": 4925,
      "wooden": 4926,
      "wre": 4927,
      "sidewalk": 4928,
      "attached": 4929,
      "##ocery": 4930,
      "##zag": 4931,
      "grocery": 4932,
      "zigzag": 4933,
      "suzy": 4934,
      "drinks": 4935,
      "racing": 4936,
      "fed": 4937,
      "fireworks": 4938,
      "raised": 4939,
      "disagreed": 4940,
      "##cious": 4941,
      "weren": 4942,
      "ali": 4943,
      "bones": 4944,
      "company": 4945,
      "peanuts": 4946,
      "burning": 4947,
      "request": 4948,
      "floppy": 4949,
      "onwards": 4950,
      "chloe": 4951,
      "\",": 4952,
      "price": 4953,
      "operation": 4954,
      "happiest": 4955,
      "spoons": 4956,
      "exact": 4957,
      "dinosaurs": 4958,
      "crunchy": 4959,
      "crashed": 4960,
      "brick": 4961,
      "weig": 4962,
      "turning": 4963,
      "whistled": 4964,
      "hurried": 4965,
      "...": 4966,
      "##pared": 4967,
      "refreshed": 4968,
      "tremb": 4969,
      "talent": 4970,
      "pies": 4971,
      "accom": 4972,
      "works": 4973,
      "prepared": 4974,
      "stitch": 4975,
      "clearing": 4976,
      "bowed": 4977,
      "whatever": 4978,
      "scratched": 4979,
      "remembers": 4980,
      "lips": 4981,
      "escaped": 4982,
      "menu": 4983,
      "bridges": 4984,
      "##aded": 4985,
      "warn": 4986,
      "lip": 4987,
      "buildings": 4988,
      "##amb": 4989,
      "planted": 4990,
      "brand": 4991,
      "##hest": 4992,
      "revealed": 4993,
      "pupp": 4994,
      "easier": 4995,
      "comfy": 4996,
      "selling": 4997,
      "precious": 4998,
      "screams": 4999,
      "hated": 5000,
      "jamie": 5001,
      "œl": 5002,
      "oxy": 5003,
      "drinking": 5004,
      "muddy": 5005,
      "##die": 5006,
      "recognized": 5007,
      "settle": 5008,
      "##ences": 5009,
      "accompl": 5010,
      "freeze": 5011,
      "crept": 5012,
      "landscap": 5013,
      "measuring": 5014,
      "circus": 5015,
      "lect": 5016,
      "wid": 5017,
      "earthquake": 5018,
      "simple": 5019,
      "sings": 5020,
      "curi": 5021,
      "beds": 5022,
      "oxygen": 5023,
      "##ases": 5024,
      "slip": 5025,
      "curiosity": 5026,
      "effort": 5027,
      "spaceship": 5028,
      "perched": 5029,
      "padd": 5030,
      "reminder": 5031,
      "shadows": 5032,
      "pitch": 5033,
      "wonders": 5034,
      "woof": 5035,
      "œcan": 5036,
      "served": 5037,
      "cutting": 5038,
      "pedal": 5039,
      "lecture": 5040,
      "voices": 5041,
      "steel": 5042,
      "cuddle": 5043,
      "waits": 5044,
      "drag": 5045,
      "fashion": 5046,
      "six": 5047,
      "oats": 5048,
      "allow": 5049,
      "comforted": 5050,
      "agreement": 5051,
      "responsible": 5052,
      "obey": 5053,
      "apologize": 5054,
      "youa": 5055,
      "rained": 5056,
      "yawn": 5057,
      "##ffic": 5058,
      "traffic": 5059,
      "soared": 5060,
      "secrets": 5061,
      "exactly": 5062,
      "trapped": 5063,
      "grandmother": 5064,
      "printer": 5065,
      "pets": 5066,
      "landscape": 5067,
      "tastes": 5068,
      "shopping": 5069,
      "succeeded": 5070,
      "rang": 5071,
      "pearl": 5072,
      "œmom": 5073,
      "stripes": 5074,
      "olives": 5075,
      "stealing": 5076,
      "disturbed": 5077,
      "rested": 5078,
      "hanna": 5079,
      "waist": 5080,
      "ladyb": 5081,
      "##come": 5082,
      "items": 5083,
      "anne": 5084,
      "swims": 5085,
      "practicing": 5086,
      "bringing": 5087,
      "writ": 5088,
      "scoop": 5089,
      "visiting": 5090,
      "sisters": 5091,
      "style": 5092,
      "fuzzy": 5093,
      "activ": 5094,
      "costumes": 5095,
      "answers": 5096,
      "##itten": 5097,
      "soak": 5098,
      "startled": 5099,
      "breaking": 5100,
      "snea": 5101,
      "##izing": 5102,
      "sadness": 5103,
      "##mble": 5104,
      "bab": 5105,
      "waffles": 5106,
      "brushed": 5107,
      "mouths": 5108,
      "encourage": 5109,
      "monsters": 5110,
      "nails": 5111,
      "chef": 5112,
      "fascinated": 5113,
      "œdon": 5114,
      "lemons": 5115,
      "outdo": 5116,
      "catching": 5117,
      "victory": 5118,
      "leather": 5119,
      "undern": 5120,
      "unic": 5121,
      "underground": 5122,
      "underneath": 5123,
      "caut": 5124,
      "claire": 5125,
      "beneath": 5126,
      "unicorn": 5127,
      "exit": 5128,
      "##agers": 5129,
      "owned": 5130,
      "blueberry": 5131,
      "ah": 5132,
      "nutty": 5133,
      "pupil": 5134,
      "knelt": 5135,
      "image": 5136,
      "##mare": 5137,
      "nightmare": 5138,
      "##ishes": 5139,
      "villagers": 5140,
      "downstairs": 5141,
      "recognize": 5142,
      "##enty": 5143,
      "unlocked": 5144,
      "##terday": 5145,
      "died": 5146,
      "yesterday": 5147,
      "creation": 5148,
      "tremble": 5149,
      "wanting": 5150,
      "eats": 5151,
      "doctors": 5152,
      "cape": 5153,
      "adam": 5154,
      "soaring": 5155,
      "jogged": 5156,
      "glitter": 5157,
      "betty": 5158,
      "wondering": 5159,
      "winning": 5160,
      "fetch": 5161,
      "bouncy": 5162,
      "##lings": 5163,
      "mission": 5164,
      "herbs": 5165,
      "##vin": 5166,
      "struggled": 5167,
      "mira": 5168,
      "famil": 5169,
      "##oming": 5170,
      "stirring": 5171,
      "punished": 5172,
      "bleeding": 5173,
      "gained": 5174,
      "tilly": 5175,
      "strip": 5176,
      "jessie": 5177,
      "nicer": 5178,
      "examined": 5179,
      "area": 5180,
      "firemen": 5181,
      "machines": 5182,
      "todd": 5183,
      "planned": 5184,
      "guessed": 5185,
      "wreck": 5186,
      "heav": 5187,
      "situ": 5188,
      "introdu": 5189,
      "##ues": 5190,
      "comple": 5191,
      "satisfied": 5192,
      "piles": 5193,
      "argued": 5194,
      "##lu": 5195,
      "chirpy": 5196,
      "challenge": 5197,
      "carl": 5198,
      "firefight": 5199,
      "ripped": 5200,
      "increase": 5201,
      "hannah": 5202,
      "zooming": 5203,
      "bunnies": 5204,
      "peaches": 5205,
      "tugged": 5206,
      "studied": 5207,
      "wagging": 5208,
      "bare": 5209,
      "spiders": 5210,
      "teasing": 5211,
      "mice": 5212,
      "lulu": 5213,
      "keys": 5214,
      "##zing": 5215,
      "deser": 5216,
      "seag": 5217,
      "sus": 5218,
      "gathering": 5219,
      "properly": 5220,
      "shivering": 5221,
      "œwe": 5222,
      "##ley": 5223,
      "seagull": 5224,
      "winner": 5225,
      "twinkle": 5226,
      "tune": 5227,
      "mixing": 5228,
      "permit": 5229,
      "blink": 5230,
      "outdoors": 5231,
      "œhello": 5232,
      "yelling": 5233,
      "twirling": 5234,
      "##iggy": 5235,
      "lux": 5236,
      "west": 5237,
      "peel": 5238,
      "tickets": 5239,
      "susan": 5240,
      "loaded": 5241,
      "pancakes": 5242,
      "release": 5243,
      "slapped": 5244,
      "supplies": 5245,
      "decorated": 5246,
      "beha": 5247,
      "abby": 5248,
      "neighbourhood": 5249,
      "sights": 5250,
      "rides": 5251,
      "studying": 5252,
      "##ury": 5253,
      "begin": 5254,
      "##jo": 5255,
      "dolly": 5256,
      "burrow": 5257,
      "instruct": 5258,
      "siren": 5259,
      "loving": 5260,
      "prunes": 5261,
      "released": 5262,
      "draws": 5263,
      "weighed": 5264,
      "contro": 5265,
      "tonight": 5266,
      "muffins": 5267,
      "sneaked": 5268,
      "confident": 5269,
      "realize": 5270,
      "baked": 5271,
      "instructions": 5272,
      "introduce": 5273,
      "##gers": 5274,
      "bend": 5275,
      ".'": 5276,
      "##ales": 5277,
      "##ica": 5278,
      "struck": 5279,
      "ladybug": 5280,
      "œlook": 5281,
      "competition": 5282,
      "thata": 5283,
      "inch": 5284,
      "giggling": 5285,
      "emergen": 5286,
      "cal": 5287,
      "pinched": 5288,
      "solut": 5289,
      "##ib": 5290,
      "budge": 5291,
      "printed": 5292,
      "pastel": 5293,
      "lou": 5294,
      "opin": 5295,
      "pockets": 5296,
      "##ding": 5297,
      "bunch": 5298,
      "lines": 5299,
      "shoulders": 5300,
      "frosting": 5301,
      "broom": 5302,
      "east": 5303,
      "stamps": 5304,
      "decides": 5305,
      "ty": 5306,
      "##ex": 5307,
      "ourselves": 5308,
      "web": 5309,
      "stretching": 5310,
      "œthis": 5311,
      "cones": 5312,
      "stair": 5313,
      "chuck": 5314,
      "pears": 5315,
      "sides": 5316,
      "patience": 5317,
      "poking": 5318,
      "reluct": 5319,
      "strings": 5320,
      "deal": 5321,
      "scurried": 5322,
      "€”": 5323,
      "kicking": 5324,
      "ruler": 5325,
      "marks": 5326,
      "honk": 5327,
      "##allow": 5328,
      "##nta": 5329,
      "youth": 5330,
      "##nesday": 5331,
      "repeated": 5332,
      "wednesday": 5333,
      "ago": 5334,
      "keeps": 5335,
      "claps": 5336,
      "prints": 5337,
      "forgi": 5338,
      "##bbing": 5339,
      "crowd": 5340,
      "sting": 5341,
      "sorting": 5342,
      "santa": 5343,
      "cautious": 5344,
      "ruin": 5345,
      "touching": 5346,
      "##flow": 5347,
      "##kins": 5348,
      "brushes": 5349,
      "neighbors": 5350,
      "demanded": 5351,
      "œh": 5352,
      "##ops": 5353,
      "mentioned": 5354,
      "linda": 5355,
      "control": 5356,
      "protected": 5357,
      "luke": 5358,
      "guns": 5359,
      "jeff": 5360,
      "disagree": 5361,
      "sweeties": 5362,
      "writes": 5363,
      "ribbons": 5364,
      "buckets": 5365,
      "tuesday": 5366,
      "hoppy": 5367,
      "momo": 5368,
      "##tiest": 5369,
      "reluctantly": 5370,
      "##jam": 5371,
      "prettiest": 5372,
      "soaked": 5373,
      "camping": 5374,
      "vent": 5375,
      "parked": 5376,
      "œwhy": 5377,
      "chat": 5378,
      "project": 5379,
      "barely": 5380,
      "boom": 5381,
      "œdona": 5382,
      "##zie": 5383,
      "horns": 5384,
      "silence": 5385,
      "eight": 5386,
      "pebbles": 5387,
      "slim": 5388,
      "luxury": 5389,
      "discovering": 5390,
      "dragons": 5391,
      "œt": 5392,
      "##rr": 5393,
      "##riage": 5394,
      "dolphins": 5395,
      "##icked": 5396,
      "kayla": 5397,
      "guys": 5398,
      "babies": 5399,
      "twinkling": 5400,
      "result": 5401,
      "dent": 5402,
      "texture": 5403,
      "expect": 5404,
      "cind": 5405,
      "surface": 5406,
      "stole": 5407,
      "vowed": 5408,
      "gazed": 5409,
      "strike": 5410,
      "movies": 5411,
      "purred": 5412,
      "beard": 5413,
      "##exp": 5414,
      "steep": 5415,
      "leap": 5416,
      "rocking": 5417,
      "chewing": 5418,
      "shock": 5419,
      "emergency": 5420,
      "unexp": 5421,
      "unexpected": 5422,
      "tickle": 5423,
      "powers": 5424,
      "##zen": 5425,
      "applauded": 5426,
      "lizzy": 5427,
      "greet": 5428,
      "contest": 5429,
      "loose": 5430,
      "entire": 5431,
      "tru": 5432,
      "urged": 5433,
      "acted": 5434,
      "fab": 5435,
      "dragged": 5436,
      "muscles": 5437,
      "uh": 5438,
      "catches": 5439,
      "moo": 5440,
      "nan": 5441,
      "##ults": 5442,
      "flat": 5443,
      "fabric": 5444,
      "curtains": 5445,
      "completed": 5446,
      "jenna": 5447,
      "##reat": 5448,
      "cindy": 5449,
      "chips": 5450,
      "season": 5451,
      "curly": 5452,
      "introduced": 5453,
      "suzie": 5454,
      "bank": 5455,
      "frozen": 5456,
      "nick": 5457,
      "direction": 5458,
      "snail": 5459,
      "importance": 5460,
      "heel": 5461,
      "##ky": 5462,
      "rubbing": 5463,
      "librarian": 5464,
      "highest": 5465,
      "##usted": 5466,
      "figured": 5467,
      "lena": 5468,
      "screaming": 5469,
      "shivered": 5470,
      "bubb": 5471,
      "solution": 5472,
      "hugging": 5473,
      "pouring": 5474,
      "rocked": 5475,
      "repla": 5476,
      "roaring": 5477,
      "achieve": 5478,
      "staring": 5479,
      "chases": 5480,
      "##ern": 5481,
      "shelves": 5482,
      "wound": 5483,
      "crumb": 5484,
      "theirs": 5485,
      "include": 5486,
      "den": 5487,
      "##ella": 5488,
      "sled": 5489,
      "œoh": 5490,
      "##esome": 5491,
      "slimy": 5492,
      "drives": 5493,
      "sorted": 5494,
      "planets": 5495,
      "mick": 5496,
      "jun": 5497,
      "cana": 5498,
      "rainbows": 5499,
      "balancing": 5500,
      "policeman": 5501,
      "##ledge": 5502,
      "awesome": 5503,
      "mater": 5504,
      "ka": 5505,
      "exha": 5506,
      "safer": 5507,
      "materi": 5508,
      "pepp": 5509,
      "momma": 5510,
      "foods": 5511,
      "situation": 5512,
      "knowledge": 5513,
      "pinky": 5514,
      "jon": 5515,
      "excuse": 5516,
      "homework": 5517,
      "gro": 5518,
      "usual": 5519,
      "sighs": 5520,
      "passing": 5521,
      "flags": 5522,
      "##itely": 5523,
      "wink": 5524,
      "ris": 5525,
      "##irts": 5526,
      "##fit": 5527,
      "shined": 5528,
      "##apping": 5529,
      "dared": 5530,
      "plenty": 5531,
      "matched": 5532,
      "towels": 5533,
      "desp": 5534,
      "lied": 5535,
      "œok": 5536,
      "zookeeper": 5537,
      "radishes": 5538,
      "bravery": 5539,
      "outfit": 5540,
      "##though": 5541,
      "reaching": 5542,
      "although": 5543,
      "sausages": 5544,
      "resting": 5545,
      "truly": 5546,
      "pretends": 5547,
      "jaco": 5548,
      "cheering": 5549,
      "wedding": 5550,
      "##eah": 5551,
      "goals": 5552,
      "jacob": 5553,
      "marriage": 5554,
      "dusty": 5555,
      "cott": 5556,
      "##jamas": 5557,
      "threat": 5558,
      "##flowers": 5559,
      "tara": 5560,
      "baa": 5561,
      "accomplish": 5562,
      "patted": 5563,
      "exhausted": 5564,
      "caused": 5565,
      "packing": 5566,
      "paintings": 5567,
      "##sure": 5568,
      "##zzie": 5569,
      "spraying": 5570,
      "slap": 5571,
      "arguing": 5572,
      "blooming": 5573,
      "motion": 5574,
      "piggy": 5575,
      "sweets": 5576,
      "##bert": 5577,
      "growling": 5578,
      "waiter": 5579,
      "matching": 5580,
      "colored": 5581,
      "struggle": 5582,
      "worker": 5583,
      "sticking": 5584,
      "gle": 5585,
      "lizzie": 5586,
      "markers": 5587,
      "##ason": 5588,
      "reveal": 5589,
      "shh": 5590,
      "kneeled": 5591,
      "mane": 5592,
      "paddled": 5593,
      "written": 5594,
      "cubes": 5595,
      "cent": 5596,
      "sway": 5597,
      "##sa": 5598,
      "jessica": 5599,
      "inviting": 5600,
      "rescued": 5601,
      "organizing": 5602,
      "bead": 5603,
      "master": 5604,
      "traveled": 5605,
      "creating": 5606,
      "princesses": 5607,
      "bottles": 5608,
      "singer": 5609,
      "expected": 5610,
      "cuts": 5611,
      "##ashed": 5612,
      "fir": 5613,
      "julia": 5614,
      "guest": 5615,
      "flavor": 5616,
      "pipp": 5617,
      "dais": 5618,
      "learns": 5619,
      "yeah": 5620,
      "abb": 5621,
      "trembling": 5622,
      "regretted": 5623,
      "bloomed": 5624,
      "replaced": 5625,
      "arrive": 5626,
      "pencils": 5627,
      "recorded": 5628,
      "despite": 5629,
      "daisies": 5630,
      "ranger": 5631,
      "included": 5632,
      "##away": 5633,
      "##inky": 5634,
      "prayer": 5635,
      "fairies": 5636,
      "workers": 5637,
      "observed": 5638,
      "##ik": 5639,
      "pots": 5640,
      "lamb": 5641,
      "##rees": 5642,
      "activities": 5643,
      "##aster": 5644,
      "wires": 5645,
      "darkness": 5646,
      "opening": 5647,
      "firm": 5648,
      "timer": 5649,
      "poems": 5650,
      "pajamas": 5651,
      "seesaw": 5652,
      "roads": 5653,
      "penguins": 5654,
      "worries": 5655,
      "removed": 5656,
      "##ction": 5657,
      "uses": 5658,
      "peeking": 5659,
      "ventured": 5660,
      "relief": 5661,
      "stare": 5662,
      "countryside": 5663,
      "completely": 5664,
      "snakes": 5665,
      "unf": 5666,
      "polishing": 5667,
      "vanish": 5668,
      "reply": 5669,
      "wasted": 5670,
      "##angled": 5671,
      "belly": 5672,
      "##immer": 5673,
      "storekeeper": 5674,
      "owners": 5675,
      "flames": 5676,
      "dollar": 5677,
      "miles": 5678,
      "cautiously": 5679,
      "leader": 5680,
      "crabs": 5681,
      "fault": 5682,
      "johnson": 5683,
      "partic": 5684,
      "faced": 5685,
      "folding": 5686,
      "squeaky": 5687,
      "quacked": 5688,
      "suggest": 5689,
      "kites": 5690,
      "stern": 5691,
      "ast": 5692,
      "becoming": 5693,
      "helmets": 5694,
      "christ": 5695,
      "gig": 5696,
      "scales": 5697,
      "##bel": 5698,
      "wasna": 5699,
      "agrees": 5700,
      "usually": 5701,
      "grocer": 5702,
      "melting": 5703,
      "larry": 5704,
      "healed": 5705,
      "squealed": 5706,
      "scra": 5707,
      "thro": 5708,
      "logs": 5709,
      "jones": 5710,
      "snat": 5711,
      "conn": 5712,
      "shaped": 5713,
      "lollipops": 5714,
      "opinion": 5715,
      "coloured": 5716,
      "tractor": 5717,
      "ripe": 5718,
      "throat": 5719,
      "cash": 5720,
      "crumbs": 5721,
      "##vers": 5722,
      "mun": 5723,
      "dipped": 5724,
      "roses": 5725,
      "staying": 5726,
      "seems": 5727,
      "knights": 5728,
      "ed": 5729,
      "comm": 5730,
      "teaches": 5731,
      "insist": 5732,
      "groceries": 5733,
      "granny": 5734,
      "##ivery": 5735,
      "dentist": 5736,
      "polished": 5737,
      "œb": 5738,
      "lap": 5739,
      "naps": 5740,
      "valued": 5741,
      "provided": 5742,
      "##asm": 5743,
      "united": 5744,
      "freed": 5745,
      "jay": 5746,
      "##hell": 5747,
      "interested": 5748,
      "baker": 5749,
      "bumpy": 5750,
      "rings": 5751,
      "scru": 5752,
      "blows": 5753,
      "rubs": 5754,
      "cracked": 5755,
      "somebody": 5756,
      "##zes": 5757,
      "faraway": 5758,
      "sophia": 5759,
      "desert": 5760,
      "rusty": 5761,
      "protecting": 5762,
      "misses": 5763,
      "marked": 5764,
      "twin": 5765,
      "winked": 5766,
      "##ah": 5767,
      "wandering": 5768,
      "june": 5769,
      "delivery": 5770,
      "bess": 5771,
      "?'": 5772,
      "pastries": 5773,
      "youn": 5774,
      "signed": 5775,
      "younger": 5776,
      "balanced": 5777,
      "##mas": 5778,
      "closes": 5779,
      "wrist": 5780,
      "chuckled": 5781,
      "##iar": 5782,
      "copy": 5783,
      "tig": 5784,
      "forehead": 5785,
      "listens": 5786,
      "single": 5787,
      "sim": 5788,
      "roots": 5789,
      "beads": 5790,
      "particular": 5791,
      "crackers": 5792,
      "actions": 5793,
      "œwhata": 5794,
      "##len": 5795,
      "directions": 5796,
      "œmommy": 5797,
      "filling": 5798,
      "cough": 5799,
      "splashes": 5800,
      "pastels": 5801,
      "itchy": 5802,
      "cous": 5803,
      "œg": 5804,
      "avo": 5805,
      "##rance": 5806,
      "snuggles": 5807,
      "abbie": 5808,
      "restored": 5809,
      "snowballs": 5810,
      "gigi": 5811,
      "hu": 5812,
      "fluttered": 5813,
      "rolls": 5814,
      "sweat": 5815,
      "gaze": 5816,
      "##hile": 5817,
      "stem": 5818,
      "swooped": 5819,
      "laura": 5820,
      "tipto": 5821,
      "##dies": 5822,
      "suitcase": 5823,
      "wiggled": 5824,
      "cause": 5825,
      "christmas": 5826,
      "swirl": 5827,
      "sparky": 5828,
      "aud": 5829,
      "pam": 5830,
      "purr": 5831,
      "refle": 5832,
      "slam": 5833,
      "photos": 5834,
      "nect": 5835,
      "nectar": 5836,
      "€˜": 5837,
      "awake": 5838,
      "mickey": 5839,
      "spea": 5840,
      "##oline": 5841,
      "neither": 5842,
      "celebration": 5843,
      "burst": 5844,
      "pedals": 5845,
      "trips": 5846,
      "speaking": 5847,
      "backed": 5848,
      "tallest": 5849,
      "froze": 5850,
      "cashier": 5851,
      "acting": 5852,
      "lined": 5853,
      "noon": 5854,
      "##ora": 5855,
      "remote": 5856,
      "darker": 5857,
      "determination": 5858,
      "##ility": 5859,
      "complaining": 5860,
      "secure": 5861,
      "##ormed": 5862,
      "pandy": 5863,
      "sneaky": 5864,
      "knees": 5865,
      "month": 5866,
      "milo": 5867,
      "recording": 5868,
      "videos": 5869,
      "rockets": 5870,
      "hoot": 5871,
      "bars": 5872,
      "insp": 5873,
      "silent": 5874,
      "health": 5875,
      "indeed": 5876,
      "accomplishment": 5877,
      "liqu": 5878,
      "entrance": 5879,
      "pleasure": 5880,
      "liquid": 5881,
      "pause": 5882,
      "wee": 5883,
      "##cha": 5884,
      "?\",": 5885,
      "seven": 5886,
      "intr": 5887,
      "shirts": 5888,
      "glee": 5889,
      "##yond": 5890,
      "beyond": 5891,
      "delivered": 5892,
      "buzzy": 5893,
      "smar": 5894,
      "joking": 5895,
      "wears": 5896,
      "mes": 5897,
      "insects": 5898,
      "chip": 5899,
      "emmy": 5900,
      "##iding": 5901,
      "mesmer": 5902,
      "opp": 5903,
      "lung": 5904,
      "mikey": 5905,
      "tricked": 5906,
      "cheeks": 5907,
      "stella": 5908,
      "##sequ": 5909,
      "consequ": 5910,
      "aff": 5911,
      "sib": 5912,
      "click": 5913,
      "hissed": 5914,
      "##tha": 5915,
      "stays": 5916,
      "bowls": 5917,
      "glasses": 5918,
      "farther": 5919,
      "rule": 5920,
      "hearing": 5921,
      "masks": 5922,
      "œcome": 5923,
      "tricky": 5924,
      "attack": 5925,
      "scaring": 5926,
      "rac": 5927,
      "sobbed": 5928,
      "tickled": 5929,
      "--": 5930,
      "##if": 5931,
      "stolen": 5932,
      "giraffes": 5933,
      "sandcastles": 5934,
      "smiley": 5935,
      "sense": 5936,
      "adding": 5937,
      "covers": 5938,
      "instrum": 5939,
      "talented": 5940,
      "calmed": 5941,
      "##boat": 5942,
      "handful": 5943,
      "batteries": 5944,
      "##pered": 5945,
      "robbie": 5946,
      "maya": 5947,
      "candies": 5948,
      "darling": 5949,
      "tangled": 5950,
      "scarves": 5951,
      "smarter": 5952,
      "dam": 5953,
      "magnets": 5954,
      "robert": 5955,
      "##avi": 5956,
      "choices": 5957,
      "achieved": 5958,
      "leading": 5959,
      "chris": 5960,
      "consequences": 5961,
      "ham": 5962,
      "guy": 5963,
      "##cky": 5964,
      "yourselves": 5965,
      "impo": 5966,
      "behavi": 5967,
      "bumps": 5968,
      "firefighters": 5969,
      "impossible": 5970,
      "reads": 5971,
      "robby": 5972,
      "hesitated": 5973,
      "tigers": 5974,
      "tess": 5975,
      "clowns": 5976,
      "badge": 5977,
      "ry": 5978,
      "paddle": 5979,
      "mixture": 5980,
      "explorers": 5981,
      "##ddled": 5982,
      "salty": 5983,
      "mushrooms": 5984,
      "defe": 5985,
      "kicks": 5986,
      "weeping": 5987,
      "bakery": 5988,
      "experi": 5989,
      "recommended": 5990,
      "gracefully": 5991,
      "##ners": 5992,
      "martha": 5993,
      "seeker": 5994,
      "seashell": 5995,
      "##ords": 5996,
      "œyoua": 5997,
      "thorn": 5998,
      "improved": 5999,
      "karen": 6000,
      "##brush": 6001,
      "swept": 6002,
      "behaved": 6003,
      "flapping": 6004,
      "##atul": 6005,
      "deserve": 6006,
      "##anes": 6007,
      "##coat": 6008,
      "stroked": 6009,
      "sy": 6010,
      "##iki": 6011,
      "beginning": 6012,
      "wipes": 6013,
      "intrig": 6014,
      "complained": 6015,
      "hider": 6016,
      "cust": 6017,
      "third": 6018,
      "œdo": 6019,
      "convin": 6020,
      "steer": 6021,
      "dots": 6022,
      "knocks": 6023,
      "objects": 6024,
      "seconds": 6025,
      "cans": 6026,
      "parties": 6027,
      "ryan": 6028,
      "teased": 6029,
      "cupcakes": 6030,
      "birdy": 6031,
      "##iled": 6032,
      "whee": 6033,
      "##lling": 6034,
      "travelled": 6035,
      "?!": 6036,
      "##bell": 6037,
      "basement": 6038,
      "heading": 6039,
      "mabel": 6040,
      "beam": 6041,
      "horiz": 6042,
      "puppies": 6043,
      "##llen": 6044,
      "fever": 6045,
      "custom": 6046,
      "snuck": 6047,
      "siblings": 6048,
      "aren": 6049,
      "raincoat": 6050,
      "artist": 6051,
      "risk": 6052,
      "horizon": 6053,
      "abi": 6054,
      "celebrating": 6055,
      "performance": 6056,
      "gems": 6057,
      "##sen": 6058,
      "jackets": 6059,
      "##ker": 6060,
      "drums": 6061,
      "sale": 6062,
      "marker": 6063,
      "hallway": 6064,
      "jacky": 6065,
      "snatched": 6066,
      "lighter": 6067,
      "##anging": 6068,
      "paying": 6069,
      "fluttering": 6070,
      "lett": 6071,
      "yells": 6072,
      "raind": 6073,
      "œwow": 6074,
      "bedtime": 6075,
      "among": 6076,
      "raindrop": 6077,
      "jojo": 6078,
      "rover": 6079,
      "finn": 6080,
      "wrapping": 6081,
      "ruining": 6082,
      "wouldna": 6083,
      "janie": 6084,
      "concer": 6085,
      "rumble": 6086,
      "buying": 6087,
      "families": 6088,
      "mer": 6089,
      "œhi": 6090,
      "auntie": 6091,
      "##mies": 6092,
      "fid": 6093,
      "##da": 6094,
      "joan": 6095,
      "annoy": 6096,
      "intrigued": 6097,
      "dollhouse": 6098,
      "rivers": 6099,
      "scrubbed": 6100,
      "needles": 6101,
      "lettuce": 6102,
      "##cho": 6103,
      "creamy": 6104,
      "peacefully": 6105,
      "puff": 6106,
      "##umbling": 6107,
      "##band": 6108,
      "scratches": 6109,
      "##ivity": 6110,
      "drifted": 6111,
      "widened": 6112,
      "tasks": 6113,
      "ral": 6114,
      "wins": 6115,
      "grandpare": 6116,
      "treehouse": 6117,
      "##ades": 6118,
      "wona": 6119,
      "##step": 6120,
      "hides": 6121,
      "players": 6122,
      "arrows": 6123,
      "losing": 6124,
      "ralph": 6125,
      "##ments": 6126,
      "fact": 6127,
      "cuddly": 6128,
      "##immering": 6129,
      "repa": 6130,
      "echo": 6131,
      "gina": 6132,
      "willing": 6133,
      "shrinking": 6134,
      "##iles": 6135,
      "lower": 6136,
      "rewarded": 6137,
      "binky": 6138,
      "creativity": 6139,
      "minerals": 6140,
      "arr": 6141,
      "##hog": 6142,
      "##fall": 6143,
      "source": 6144,
      "repaired": 6145,
      "kiki": 6146,
      "passen": 6147,
      "temper": 6148,
      "onions": 6149,
      "including": 6150,
      "limes": 6151,
      "fears": 6152,
      "sadie": 6153,
      "jackie": 6154,
      "imagining": 6155,
      "maddie": 6156,
      "diving": 6157,
      "tiptoed": 6158,
      "tapped": 6159,
      "grassy": 6160,
      "earn": 6161,
      "rising": 6162,
      "decorating": 6163,
      "swans": 6164,
      "creations": 6165,
      "peppers": 6166,
      "merry": 6167,
      "##ongr": 6168,
      "chop": 6169,
      "chefs": 6170,
      "##ded": 6171,
      "sprinkled": 6172,
      "separated": 6173,
      "granted": 6174,
      "ew": 6175,
      "printing": 6176,
      "flop": 6177,
      "micha": 6178,
      "michael": 6179,
      "grabbing": 6180,
      "##dri": 6181,
      "œmy": 6182,
      "hedgehog": 6183,
      "swimsuit": 6184,
      "rocky": 6185,
      "##ongratul": 6186,
      "##iece": 6187,
      "judy": 6188,
      "pans": 6189,
      "tiss": 6190,
      "screwdri": 6191,
      "simon": 6192,
      "amel": 6193,
      "coup": 6194,
      "stomped": 6195,
      "gross": 6196,
      "spong": 6197,
      "backwards": 6198,
      "pouted": 6199,
      "windy": 6200,
      "squares": 6201,
      "##itude": 6202,
      "wobb": 6203,
      "forgiven": 6204,
      "squish": 6205,
      "##cas": 6206,
      "hesitant": 6207,
      "damage": 6208,
      "haw": 6209,
      "tramp": 6210,
      "stung": 6211,
      "planning": 6212,
      "marie": 6213,
      "unpacked": 6214,
      "snowmen": 6215,
      "woo": 6216,
      "bluey": 6217,
      "slower": 6218,
      "raindrops": 6219,
      "stit": 6220,
      "##vest": 6221,
      "beloved": 6222,
      "avoid": 6223,
      "materials": 6224,
      "promises": 6225,
      "heavier": 6226,
      "congratul": 6227,
      "marsh": 6228,
      "##rac": 6229,
      "pointy": 6230,
      "curiously": 6231,
      "growls": 6232,
      "wrink": 6233,
      "whoever": 6234,
      "rip": 6235,
      "wiping": 6236,
      "oops": 6237,
      "sailboat": 6238,
      "screwdriver": 6239,
      "surroundings": 6240,
      "cousin": 6241,
      "center": 6242,
      "##cope": 6243,
      "lia": 6244,
      "praying": 6245,
      "recipe": 6246,
      "audience": 6247,
      "refu": 6248,
      "neighbours": 6249,
      "rustling": 6250,
      "hus": 6251,
      "prepar": 6252,
      "blocking": 6253,
      "meg": 6254,
      "œp": 6255,
      "nine": 6256,
      "##kend": 6257,
      "slices": 6258,
      "gobbled": 6259,
      "temperature": 6260,
      "stool": 6261,
      "weekend": 6262,
      "ornaments": 6263,
      "trampoline": 6264,
      "helpers": 6265,
      "##eds": 6266,
      "##ening": 6267,
      "dot": 6268,
      "wobbled": 6269,
      "sunflowers": 6270,
      "couple": 6271,
      "designed": 6272,
      "yel": 6273,
      "sparks": 6274,
      "discussed": 6275,
      "##child": 6276,
      "vanilla": 6277,
      "noses": 6278,
      "zara": 6279,
      "whata": 6280,
      "dreamt": 6281,
      "er": 6282,
      "##itted": 6283,
      "wea": 6284,
      "corners": 6285,
      "exce": 6286,
      "racco": 6287,
      "##aut": 6288,
      "pecked": 6289,
      "slammed": 6290,
      "10": 6291,
      "hitting": 6292,
      "afford": 6293,
      "hops": 6294,
      "sports": 6295,
      "age": 6296,
      "feast": 6297,
      "forks": 6298,
      "grandchild": 6299,
      "##ho": 6300,
      "shoo": 6301,
      "streets": 6302,
      "dads": 6303,
      "remembering": 6304,
      "##ably": 6305,
      "ache": 6306,
      "tissue": 6307,
      "zoey": 6308,
      "tails": 6309,
      "aside": 6310,
      "sponge": 6311,
      "requested": 6312,
      "stain": 6313,
      "meals": 6314,
      "reflection": 6315,
      "bows": 6316,
      "det": 6317,
      "peep": 6318,
      "warnings": 6319,
      "prett": 6320,
      "dances": 6321,
      "plans": 6322,
      "reb": 6323,
      "leaning": 6324,
      "duckling": 6325,
      "screws": 6326,
      "familiar": 6327,
      "coloring": 6328,
      "spreading": 6329,
      "dollars": 6330,
      "magician": 6331,
      "muscle": 6332,
      "skunk": 6333,
      "adult": 6334,
      "fido": 6335,
      "changing": 6336,
      "breathed": 6337,
      "greeted": 6338,
      "astron": 6339,
      "##ans": 6340,
      "amelia": 6341,
      "scam": 6342,
      "zipping": 6343,
      "grandparents": 6344,
      "forgets": 6345,
      "tunnels": 6346,
      "flight": 6347,
      "chosen": 6348,
      "sailors": 6349,
      "thrown": 6350,
      "shops": 6351,
      "twice": 6352,
      "gardener": 6353,
      "snuggle": 6354,
      "prettier": 6355,
      "hour": 6356,
      "swords": 6357,
      "##ibble": 6358,
      "astronaut": 6359,
      "potion": 6360,
      "spikes": 6361,
      "rott": 6362,
      "touches": 6363,
      "husband": 6364,
      "œthe": 6365,
      "enthusiasm": 6366,
      "superheroes": 6367,
      "daring": 6368,
      "##ition": 6369,
      "dod": 6370,
      "cuddles": 6371,
      "rotten": 6372,
      "wishing": 6373,
      "##ertain": 6374,
      "œbut": 6375,
      "reason": 6376,
      "spoonful": 6377,
      "pens": 6378,
      "##shions": 6379,
      "##mallow": 6380,
      "reass": 6381,
      "least": 6382,
      "marshmallow": 6383,
      "davey": 6384,
      "zebras": 6385,
      "correct": 6386,
      "borrowed": 6387,
      "forgetting": 6388,
      "sending": 6389,
      "counts": 6390,
      "feeding": 6391,
      "heroes": 6392,
      "hopeful": 6393,
      "frosty": 6394,
      "bodies": 6395,
      "guests": 6396,
      "flavors": 6397,
      "mesmerized": 6398,
      "raccoon": 6399,
      "##ounced": 6400,
      "mints": 6401,
      "wil": 6402,
      "wendy": 6403,
      "charac": 6404,
      "character": 6405,
      "wobble": 6406,
      "seaw": 6407,
      "buzzed": 6408,
      "bless": 6409,
      "poss": 6410,
      "neatly": 6411,
      "baths": 6412,
      "grows": 6413,
      "napkins": 6414,
      "wraps": 6415,
      "rick": 6416,
      "steady": 6417,
      "cond": 6418,
      "handsome": 6419,
      "nibb": 6420,
      "nibble": 6421,
      "delivering": 6422,
      "months": 6423,
      "blast": 6424,
      "dived": 6425,
      "##antha": 6426,
      "##stick": 6427,
      "samantha": 6428,
      "##ca": 6429,
      "politely": 6430,
      "holly": 6431,
      "suffering": 6432,
      "onward": 6433,
      "##using": 6434,
      "embarrass": 6435,
      "alien": 6436,
      "sneezing": 6437,
      "warmer": 6438,
      "throughout": 6439,
      "maddy": 6440,
      "unsure": 6441,
      "plain": 6442,
      "die": 6443,
      "thud": 6444,
      "honked": 6445,
      "wiggle": 6446,
      "gri": 6447,
      "lungs": 6448,
      "ruth": 6449,
      "biting": 6450,
      "bully": 6451,
      "crashing": 6452,
      "plucked": 6453,
      "oatme": 6454,
      "toddler": 6455,
      "bessie": 6456,
      "poster": 6457,
      "express": 6458,
      "seaweed": 6459,
      "matters": 6460,
      "glitt": 6461,
      "joining": 6462,
      "lifts": 6463,
      "oatmeal": 6464,
      "dip": 6465,
      "refreshing": 6466,
      "geese": 6467,
      "preparing": 6468,
      "##iley": 6469,
      "students": 6470,
      "crew": 6471,
      "increased": 6472,
      "watering": 6473,
      "pops": 6474,
      "stands": 6475,
      "##cers": 6476,
      "scen": 6477,
      "grant": 6478,
      "##allowed": 6479,
      "swallowed": 6480,
      "glued": 6481,
      "hawk": 6482,
      "serv": 6483,
      "foc": 6484,
      "puppet": 6485,
      "ropes": 6486,
      "whispers": 6487,
      "respond": 6488,
      "triangles": 6489,
      "freedom": 6490,
      "postman": 6491,
      "amount": 6492,
      "wobbly": 6493,
      "toaster": 6494,
      "starfish": 6495,
      "lessons": 6496,
      "performed": 6497,
      "smelling": 6498,
      "adults": 6499,
      "oc": 6500,
      "œwell": 6501,
      "leads": 6502,
      "trembled": 6503,
      "presses": 6504,
      "rushing": 6505,
      "cushions": 6506,
      "dancers": 6507,
      "bubba": 6508,
      "wrigg": 6509,
      "##gg": 6510,
      "shall": 6511,
      "humans": 6512,
      "##while": 6513,
      "confl": 6514,
      "talks": 6515,
      "panicked": 6516,
      "resisted": 6517,
      "sniffs": 6518,
      "scraped": 6519,
      "focused": 6520,
      "##laces": 6521,
      "œwhere": 6522,
      "joyful": 6523,
      "necklaces": 6524,
      "nu": 6525,
      "##old": 6526,
      "?!\"": 6527,
      "megan": 6528,
      "trot": 6529,
      "slips": 6530,
      "softer": 6531,
      "firmly": 6532,
      "waddled": 6533,
      "tuck": 6534,
      "firefly": 6535,
      "napping": 6536,
      "nervously": 6537,
      "quarreling": 6538,
      "encouraging": 6539,
      "instantly": 6540,
      "##ados": 6541,
      "dropping": 6542,
      "tested": 6543,
      "frowning": 6544,
      "pigeons": 6545,
      "mina": 6546,
      "##iona": 6547,
      "lifting": 6548,
      "drawers": 6549,
      "tables": 6550,
      "nood": 6551,
      "worn": 6552,
      "##attered": 6553,
      "waterfall": 6554,
      "##onna": 6555,
      "thump": 6556,
      "sofia": 6557,
      "firefighter": 6558,
      "faded": 6559,
      "scampered": 6560,
      "drivers": 6561,
      "rout": 6562,
      "polar": 6563,
      "freddie": 6564,
      "fiona": 6565,
      "pennies": 6566,
      "mate": 6567,
      "spat": 6568,
      "explo": 6569,
      "within": 6570,
      "scient": 6571,
      "flopsy": 6572,
      "flas": 6573,
      "drawn": 6574,
      "san": 6575,
      "appreciation": 6576,
      "avocados": 6577,
      "certain": 6578,
      "robber": 6579,
      "pours": 6580,
      "scientist": 6581,
      "katy": 6582,
      "thoughts": 6583,
      "respected": 6584,
      "##bbie": 6585,
      "surprising": 6586,
      "twinkled": 6587,
      "meanwhile": 6588,
      "elf": 6589,
      "leapt": 6590,
      "stacked": 6591,
      "eva": 6592,
      "##ne": 6593,
      "dresser": 6594,
      "ken": 6595,
      "froggy": 6596,
      "fits": 6597,
      "speedy": 6598,
      "overcome": 6599,
      "wiggly": 6600,
      "playtime": 6601,
      "tam": 6602,
      "notes": 6603,
      "bravest": 6604,
      "strongest": 6605,
      "forgiving": 6606,
      "hoo": 6607,
      "nur": 6608,
      "cobwebs": 6609,
      "gonna": 6610,
      "peck": 6611,
      "sharks": 6612,
      "whose": 6613,
      "œif": 6614,
      "prove": 6615,
      "##ushed": 6616,
      "pumpkins": 6617,
      "œokay": 6618,
      "performing": 6619,
      "wept": 6620,
      "##fus": 6621,
      "cosy": 6622,
      "squeezing": 6623,
      "spins": 6624,
      "##cake": 6625,
      "scored": 6626,
      "colder": 6627,
      "garb": 6628,
      "echoed": 6629,
      "convers": 6630,
      "garbage": 6631,
      "wakes": 6632,
      "playroom": 6633,
      "squishy": 6634,
      "##fire": 6635,
      "angels": 6636,
      "def": 6637,
      "designs": 6638,
      "jonny": 6639,
      "sank": 6640,
      "robots": 6641,
      "behaving": 6642,
      "prob": 6643,
      "blinking": 6644,
      "giggles": 6645,
      "probably": 6646,
      "bru": 6647,
      "flown": 6648,
      "bells": 6649,
      "tricycle": 6650,
      "healing": 6651,
      "apr": 6652,
      "sweetest": 6653,
      "guide": 6654,
      "##iel": 6655,
      "marshmallows": 6656,
      "gest": 6657,
      "bon": 6658,
      "oysters": 6659,
      "explorer": 6660,
      "##iment": 6661,
      "ell": 6662,
      "tossed": 6663,
      "mae": 6664,
      "causing": 6665,
      "tar": 6666,
      "ties": 6667,
      "awo": 6668,
      "##itched": 6669,
      "twisty": 6670,
      "cotton": 6671,
      "##ndred": 6672,
      "hundred": 6673,
      "fleas": 6674,
      "shown": 6675,
      "##ggy": 6676,
      "spices": 6677,
      "...\"": 6678,
      "louise": 6679,
      "pins": 6680,
      "til": 6681,
      "puzzled": 6682,
      "passengers": 6683,
      "##bro": 6684,
      "tighter": 6685,
      "haird": 6686,
      "##eth": 6687,
      "passports": 6688,
      "sadd": 6689,
      "##ently": 6690,
      "patches": 6691,
      "yielded": 6692,
      "pound": 6693,
      "kittens": 6694,
      "##bird": 6695,
      "reversed": 6696,
      "oo": 6697,
      "ally": 6698,
      "mac": 6699,
      "melo": 6700,
      "bamb": 6701,
      "faith": 6702,
      "##broken": 6703,
      "surfing": 6704,
      "sewing": 6705,
      "œs": 6706,
      "aimed": 6707,
      "offic": 6708,
      "nearly": 6709,
      "##ading": 6710,
      "##ilda": 6711,
      "unw": 6712,
      "pays": 6713,
      "brushing": 6714,
      "sever": 6715,
      "fant": 6716,
      "maisy": 6717,
      "cheers": 6718,
      "instruments": 6719,
      "##go": 6720,
      "clues": 6721,
      "wider": 6722,
      "bits": 6723,
      "conflict": 6724,
      "hallow": 6725,
      "inj": 6726,
      "reun": 6727,
      "##maid": 6728,
      "halloween": 6729,
      "##lease": 6730,
      "action": 6731,
      "nuzz": 6732,
      "tying": 6733,
      "scurry": 6734,
      "doorway": 6735,
      "appreciated": 6736,
      "paintbrush": 6737,
      "twisting": 6738,
      "##mates": 6739,
      "drift": 6740,
      "loading": 6741,
      "evil": 6742,
      "laying": 6743,
      "mermaid": 6744,
      "coug": 6745,
      "##rup": 6746,
      "cottage": 6747,
      "breathing": 6748,
      "œplease": 6749,
      "soaking": 6750,
      "robin": 6751,
      "pippin": 6752,
      "ease": 6753,
      "##lves": 6754,
      "heartbroken": 6755,
      "##ya": 6756,
      "slither": 6757,
      "several": 6758,
      "##onies": 6759,
      "slipping": 6760,
      "ignoring": 6761,
      "pippa": 6762,
      "##hew": 6763,
      "belts": 6764,
      "paths": 6765,
      "anger": 6766,
      "sweep": 6767,
      "rainy": 6768,
      "ais": 6769,
      "blocked": 6770,
      "repeating": 6771,
      "figures": 6772,
      "caw": 6773,
      "results": 6774,
      "noodles": 6775,
      "cloudy": 6776,
      "crossing": 6777,
      "mailed": 6778,
      "becky": 6779,
      "grandson": 6780,
      "fantastic": 6781,
      "gaz": 6782,
      "defin": 6783,
      "lending": 6784,
      "suffered": 6785,
      "##idey": 6786,
      "stroll": 6787,
      "rin": 6788,
      "##amaged": 6789,
      "buses": 6790,
      "finishing": 6791,
      "shrug": 6792,
      "connected": 6793,
      "spidey": 6794,
      "€,": 6795,
      "shovels": 6796,
      "damaged": 6797,
      "ponies": 6798,
      "roars": 6799,
      "œof": 6800,
      "licking": 6801,
      "accomplished": 6802,
      "rather": 6803,
      "humming": 6804,
      "except": 6805,
      "popp": 6806,
      "behavior": 6807,
      "##isc": 6808,
      "bracelets": 6809,
      "responsib": 6810,
      "streamers": 6811,
      "surrendered": 6812,
      "##fla": 6813,
      "toward": 6814,
      "risks": 6815,
      "shady": 6816,
      "encount": 6817,
      "eliz": 6818,
      "cleaner": 6819,
      "hairdress": 6820,
      "##flakes": 6821,
      "supported": 6822,
      "grandda": 6823,
      "frankie": 6824,
      "##piece": 6825,
      "squaw": 6826,
      "tasting": 6827,
      "snowflakes": 6828,
      "ding": 6829,
      "kelly": 6830,
      "quieter": 6831,
      "awoke": 6832,
      "stitches": 6833,
      "goodbyes": 6834,
      "thorns": 6835,
      "##oni": 6836,
      "genie": 6837,
      "wally": 6838,
      "tablet": 6839,
      "coral": 6840,
      "œnow": 6841,
      "granddaughter": 6842,
      "definitely": 6843,
      "##isions": 6844,
      "edges": 6845,
      "janey": 6846,
      "##found": 6847,
      "##unity": 6848,
      "kings": 6849,
      "prick": 6850,
      "focus": 6851,
      "frowns": 6852,
      "##erk": 6853,
      "handing": 6854,
      "final": 6855,
      "kevin": 6856,
      "sped": 6857,
      "drown": 6858,
      "elbow": 6859,
      "wisely": 6860,
      "reminding": 6861,
      "terrified": 6862,
      "symbols": 6863,
      "rains": 6864,
      "battle": 6865,
      "smallest": 6866,
      "surv": 6867,
      "gesture": 6868,
      "hairdresser": 6869,
      "gus": 6870,
      "##dding": 6871,
      "ri": 6872,
      "##ms": 6873,
      "vines": 6874,
      "correctly": 6875,
      "decisions": 6876,
      "driveway": 6877,
      "##crow": 6878,
      "sou": 6879,
      "nast": 6880,
      "scarecrow": 6881,
      "peeled": 6882,
      "warri": 6883,
      "rays": 6884,
      "simply": 6885,
      "newfound": 6886,
      "squeaked": 6887,
      "œgood": 6888,
      "occas": 6889,
      "chopped": 6890,
      "weeds": 6891,
      "student": 6892,
      "sav": 6893,
      "inspired": 6894,
      "bandages": 6895,
      "fishes": 6896,
      "stopping": 6897,
      "exercises": 6898,
      "jax": 6899,
      "nasty": 6900,
      "##onse": 6901,
      "response": 6902,
      "experien": 6903,
      "maker": 6904,
      "##cie": 6905,
      "##steps": 6906,
      "believing": 6907,
      "banged": 6908,
      "tipped": 6909,
      "afar": 6910,
      "darlings": 6911,
      "disturbing": 6912,
      "œhey": 6913,
      "travels": 6914,
      "fills": 6915,
      "poppies": 6916,
      "lent": 6917,
      "##father": 6918,
      "footsteps": 6919,
      "stan": 6920,
      "daniel": 6921,
      "flipped": 6922,
      "travelling": 6923,
      "pedaled": 6924,
      "ships": 6925,
      "punishment": 6926,
      "dory": 6927,
      "roger": 6928,
      "birdhouse": 6929,
      "windowsill": 6930,
      "spits": 6931,
      "lies": 6932,
      "presented": 6933,
      "phil": 6934,
      "desper": 6935,
      "nat": 6936,
      "planting": 6937,
      "address": 6938,
      "patty": 6939,
      "nodding": 6940,
      "pand": 6941,
      "forests": 6942,
      "elle": 6943,
      "craft": 6944,
      "chocolates": 6945,
      "antic": 6946,
      "apologised": 6947,
      "encouragement": 6948,
      "grandfather": 6949,
      "surfboard": 6950,
      "arranged": 6951,
      "congratulated": 6952,
      "sails": 6953,
      "reassured": 6954,
      "testing": 6955,
      "trotted": 6956,
      "covering": 6957,
      "##ulp": 6958,
      "reunited": 6959,
      "und": 6960,
      "images": 6961,
      "pandas": 6962,
      "whoo": 6963,
      "suits": 6964,
      "target": 6965,
      "oink": 6966,
      "reapp": 6967,
      "clerk": 6968,
      "business": 6969,
      "solving": 6970,
      "campfire": 6971,
      "##fly": 6972,
      "marve": 6973,
      "speeding": 6974,
      "officers": 6975,
      "nancy": 6976,
      "##issa": 6977,
      "mood": 6978,
      "elly": 6979,
      "##line": 6980,
      "magnif": 6981,
      "backpacks": 6982,
      "ger": 6983,
      "dep": 6984,
      "knots": 6985,
      "amanda": 6986,
      "foxes": 6987,
      "chilly": 6988,
      "activity": 6989,
      "masterpiece": 6990,
      "expert": 6991,
      "yelped": 6992,
      "##worm": 6993,
      "labels": 6994,
      "wrinkled": 6995,
      "gears": 6996,
      "concert": 6997,
      "delayed": 6998,
      "grip": 6999,
      "##ooky": 7000,
      "comforting": 7001,
      "changes": 7002,
      "sniffing": 7003,
      "##action": 7004,
      "##boy": 7005,
      "spills": 7006,
      "calmly": 7007,
      "jean": 7008,
      "appl": 7009,
      "worrying": 7010,
      "braver": 7011,
      "pleaded": 7012,
      "quackers": 7013,
      "burying": 7014,
      "discussing": 7015,
      "stumble": 7016,
      "spies": 7017,
      "mam": 7018,
      "aim": 7019,
      "magazines": 7020,
      "##otte": 7021,
      "crowns": 7022,
      "suggestion": 7023,
      "##sha": 7024,
      "ribbit": 7025,
      "charlotte": 7026,
      "puck": 7027,
      "jars": 7028,
      "seller": 7029,
      "artwork": 7030,
      "mischie": 7031,
      "refuse": 7032,
      "##eys": 7033,
      "belongings": 7034,
      "displayed": 7035,
      "bothering": 7036,
      "dev": 7037,
      "mischievous": 7038,
      "understands": 7039,
      "helen": 7040,
      "admiration": 7041,
      "height": 7042,
      "efforts": 7043,
      "baskets": 7044,
      "ana": 7045,
      "fires": 7046,
      "##whe": 7047,
      "dragonfly": 7048,
      "toolbox": 7049,
      "aware": 7050,
      "bitten": 7051,
      "loops": 7052,
      "##ddie": 7053,
      "coach": 7054,
      "dump": 7055,
      "towns": 7056,
      "##rier": 7057,
      "experienced": 7058,
      "ly": 7059,
      "vehicles": 7060,
      "annoyed": 7061,
      "eddie": 7062,
      "##arrow": 7063,
      "lina": 7064,
      "##screen": 7065,
      "wealth": 7066,
      "##iam": 7067,
      "##inted": 7068,
      "packages": 7069,
      "elsa": 7070,
      "sunscreen": 7071,
      "cowboy": 7072,
      "##arest": 7073,
      "rotting": 7074,
      "scent": 7075,
      "fortunately": 7076,
      "##int": 7077,
      "peas": 7078,
      "eric": 7079,
      "satur": 7080,
      "tumbled": 7081,
      "memb": 7082,
      "members": 7083,
      "posit": 7084,
      "seashells": 7085,
      "saturday": 7086,
      "melody": 7087,
      "warmly": 7088,
      "troubles": 7089,
      "nibbled": 7090,
      "œsure": 7091,
      "decl": 7092,
      "sasha": 7093,
      "spooky": 7094,
      "rudy": 7095,
      "diamonds": 7096,
      "gazing": 7097,
      "treated": 7098,
      "ruff": 7099,
      "##see": 7100,
      "material": 7101,
      "insisting": 7102,
      "œj": 7103,
      "prayers": 7104,
      "creams": 7105,
      "sill": 7106,
      "ava": 7107,
      "tammy": 7108,
      "conqu": 7109,
      "curl": 7110,
      "diso": 7111,
      "untied": 7112,
      "##iron": 7113,
      "parted": 7114,
      "##wise": 7115,
      "races": 7116,
      "environ": 7117,
      "conversation": 7118,
      "collap": 7119,
      "bathing": 7120,
      "turtles": 7121,
      "##cl": 7122,
      "hoops": 7123,
      "teachers": 7124,
      "encountered": 7125,
      "joins": 7126,
      "sewed": 7127,
      "environment": 7128,
      "trans": 7129,
      "whispering": 7130,
      "scurrying": 7131,
      "orders": 7132,
      "permitted": 7133,
      "joked": 7134,
      "argum": 7135,
      "spells": 7136,
      "purpose": 7137,
      "tilted": 7138,
      "exch": 7139,
      "otherwise": 7140,
      "stored": 7141,
      "nana": 7142,
      "##ix": 7143,
      "loses": 7144,
      "terry": 7145,
      "goats": 7146,
      "forgiveness": 7147,
      "quarre": 7148,
      "sheets": 7149,
      "scram": 7150,
      "jason": 7151,
      "fins": 7152,
      "queens": 7153,
      "glittering": 7154,
      "gap": 7155,
      "œsee": 7156,
      "##ugging": 7157,
      "detail": 7158,
      "##acles": 7159,
      "tubes": 7160,
      "honesty": 7161,
      "pupils": 7162,
      "anticip": 7163,
      "bisc": 7164,
      "rud": 7165,
      "type": 7166,
      "beaming": 7167,
      "biscuit": 7168,
      "##ana": 7169,
      "nearest": 7170,
      "servant": 7171,
      "ends": 7172,
      "dressing": 7173,
      "films": 7174,
      "tapping": 7175,
      "fishy": 7176,
      "##ongo": 7177,
      "visitors": 7178,
      "customers": 7179,
      "##ippy": 7180,
      "opport": 7181,
      "izzy": 7182,
      "ting": 7183,
      "donkey": 7184,
      "wasting": 7185,
      "untie": 7186,
      "stroke": 7187,
      "hunters": 7188,
      "william": 7189,
      "cleared": 7190,
      "nurses": 7191,
      "mosquitoes": 7192,
      "oppos": 7193,
      "soot": 7194,
      "spy": 7195,
      "##nded": 7196,
      "examining": 7197,
      "swo": 7198,
      "convinced": 7199,
      "bobbie": 7200,
      "connect": 7201,
      "ricky": 7202,
      "knives": 7203,
      "cooper": 7204,
      "sweaty": 7205,
      "wounds": 7206,
      "swollen": 7207,
      "tin": 7208,
      "##inger": 7209,
      "slowed": 7210,
      "elsie": 7211,
      "declared": 7212,
      "jud": 7213,
      "opposite": 7214,
      "finny": 7215,
      "brian": 7216,
      "##sers": 7217,
      "##racted": 7218,
      "characters": 7219,
      "##ilities": 7220,
      "failed": 7221,
      "guessing": 7222,
      "##elope": 7223,
      "beaver": 7224,
      "tidied": 7225,
      "charge": 7226,
      "warrior": 7227,
      "blond": 7228,
      "seagulls": 7229,
      "thanking": 7230,
      "lipstick": 7231,
      "sternly": 7232,
      "goodies": 7233,
      "scratching": 7234,
      "youngest": 7235,
      "##orter": 7236,
      "sens": 7237,
      "##order": 7238,
      "earned": 7239,
      "scrambled": 7240,
      "una": 7241,
      "signing": 7242,
      "rescuing": 7243,
      "bongo": 7244,
      "##emp": 7245,
      "grat": 7246,
      "beeped": 7247,
      "cons": 7248,
      "shin": 7249,
      "gasp": 7250,
      "tires": 7251,
      "fain": 7252,
      "whim": 7253,
      "oliv": 7254,
      "meowing": 7255,
      "novels": 7256,
      "attemp": 7257,
      "inchworm": 7258,
      "tessa": 7259,
      "dripping": 7260,
      "questioned": 7261,
      "bou": 7262,
      "amber": 7263,
      "form": 7264,
      "stall": 7265,
      "picnics": 7266,
      "knocking": 7267,
      "bouqu": 7268,
      "force": 7269,
      "seals": 7270,
      "active": 7271,
      "peppa": 7272,
      "snug": 7273,
      "œwho": 7274,
      "anticipation": 7275,
      "##rily": 7276,
      "responded": 7277,
      "aisle": 7278,
      "responsibility": 7279,
      "gratitude": 7280,
      "floors": 7281,
      "vibr": 7282,
      "smashed": 7283,
      "attacked": 7284,
      "zoomy": 7285,
      "explains": 7286,
      "emerged": 7287,
      "##pit": 7288,
      "##uctor": 7289,
      "discoveries": 7290,
      "obeyed": 7291,
      "rely": 7292,
      "aeroplanes": 7293,
      "badger": 7294,
      "decoration": 7295,
      "zooms": 7296,
      "manners": 7297,
      "glist": 7298,
      "rebec": 7299,
      "classmates": 7300,
      "pea": 7301,
      "##choo": 7302,
      "rats": 7303,
      "visits": 7304,
      "girla": 7305,
      "fif": 7306,
      "ginger": 7307,
      "twists": 7308,
      "robo": 7309,
      "survive": 7310,
      "gary": 7311,
      "manager": 7312,
      "crabby": 7313,
      "loc": 7314,
      "rebecca": 7315,
      "##munk": 7316,
      "##ral": 7317,
      "increasing": 7318,
      "chipmunk": 7319,
      "jugg": 7320,
      "breaths": 7321,
      "unwra": 7322,
      "roo": 7323,
      "rumbling": 7324,
      "ramp": 7325,
      "matilda": 7326,
      "beeh": 7327,
      "buckled": 7328,
      "shrunk": 7329,
      "##rie": 7330,
      "brightest": 7331,
      "penelope": 7332,
      "flip": 7333,
      "##bit": 7334,
      "olivia": 7335,
      "fel": 7336,
      "munched": 7337,
      "shimmering": 7338,
      "aliens": 7339,
      "purrs": 7340,
      "##idence": 7341,
      "doorbell": 7342,
      "flaps": 7343,
      "swaying": 7344,
      "arrr": 7345,
      "œmay": 7346,
      "cracks": 7347,
      "movements": 7348,
      "lowered": 7349,
      "##athan": 7350,
      "honking": 7351,
      "##udged": 7352,
      "tum": 7353,
      "ghosts": 7354,
      "argument": 7355,
      "winding": 7356,
      "disobey": 7357,
      "bond": 7358,
      "##ssss": 7359,
      "designing": 7360,
      "achoo": 7361,
      "##aret": 7362,
      "announced": 7363,
      "prevented": 7364,
      "prickly": 7365,
      "cara": 7366,
      "isab": 7367,
      "offering": 7368,
      "rowed": 7369,
      "switched": 7370,
      "shelly": 7371,
      "swap": 7372,
      "taped": 7373,
      "jilly": 7374,
      "toss": 7375,
      "ashley": 7376,
      "mart": 7377,
      "flick": 7378,
      "poses": 7379,
      "germs": 7380,
      "flips": 7381,
      "nuzzled": 7382,
      "##storm": 7383,
      "destroying": 7384,
      "jobs": 7385,
      "satisf": 7386,
      "swayed": 7387,
      "steth": 7388,
      "##oscope": 7389,
      "deed": 7390,
      "lapt": 7391,
      "##opes": 7392,
      "minds": 7393,
      "cares": 7394,
      "generosity": 7395,
      "observing": 7396,
      "dodged": 7397,
      "closing": 7398,
      "glimmering": 7399,
      "court": 7400,
      "crawls": 7401,
      "eliza": 7402,
      "##bee": 7403,
      "whistles": 7404,
      "shines": 7405,
      "scooters": 7406,
      "smelt": 7407,
      "cluck": 7408,
      "crops": 7409,
      "ill": 7410,
      "##va": 7411,
      "snaps": 7412,
      "beautifully": 7413,
      "dangers": 7414,
      "unpacking": 7415,
      "beating": 7416,
      "gracie": 7417,
      "tidying": 7418,
      "recorder": 7419,
      "million": 7420,
      "exploded": 7421,
      "cupcake": 7422,
      "scolds": 7423,
      "checkout": 7424,
      "languages": 7425,
      "stamped": 7426,
      "##oura": 7427,
      "##lt": 7428,
      "groan": 7429,
      "customer": 7430,
      "bert": 7431,
      "haven": 7432,
      "##vy": 7433,
      "##boards": 7434,
      "elect": 7435,
      "##cent": 7436,
      "hike": 7437,
      "robbers": 7438,
      "paddling": 7439,
      "thankfully": 7440,
      "tummies": 7441,
      "stethoscope": 7442,
      "ket": 7443,
      "plug": 7444,
      "##ka": 7445,
      "drowned": 7446,
      "clicked": 7447,
      "expecting": 7448,
      "',": 7449,
      "goo": 7450,
      "disappoint": 7451,
      "laptop": 7452,
      "nora": 7453,
      "##lied": 7454,
      "astronauts": 7455,
      "supplied": 7456,
      "œmaybe": 7457,
      "##ggies": 7458,
      "routine": 7459,
      "veggies": 7460,
      "gabby": 7461,
      "peggy": 7462,
      "bonnie": 7463,
      "##imm": 7464,
      "statues": 7465,
      "beehive": 7466,
      "paula": 7467,
      "steering": 7468,
      "dears": 7469,
      "adds": 7470,
      "bouquet": 7471,
      "jenn": 7472,
      "dino": 7473,
      "hood": 7474,
      "twenty": 7475,
      "cocoon": 7476,
      "particularly": 7477,
      "##belle": 7478,
      "chatted": 7479,
      "stomp": 7480,
      "conductor": 7481,
      "shorts": 7482,
      "pout": 7483,
      "reminds": 7484,
      "##olph": 7485,
      "belle": 7486,
      "##bun": 7487,
      "strum": 7488,
      "hardest": 7489,
      "bunbun": 7490,
      "rudolph": 7491,
      "tyler": 7492,
      "matey": 7493,
      "applause": 7494,
      "zack": 7495,
      "stretches": 7496,
      "healthier": 7497,
      "moma": 7498,
      "floats": 7499,
      "nic": 7500,
      "scri": 7501,
      "wiser": 7502,
      "riley": 7503,
      "rav": 7504,
      "sculp": 7505,
      "swallow": 7506,
      "carla": 7507,
      "awful": 7508,
      "wildflowers": 7509,
      "sprinkle": 7510,
      "wooly": 7511,
      "##uel": 7512,
      "plugged": 7513,
      "overhead": 7514,
      "andrew": 7515,
      "serving": 7516,
      "ky": 7517,
      "beast": 7518,
      "bluebird": 7519,
      "foxy": 7520,
      "weapons": 7521,
      "april": 7522,
      "electric": 7523,
      "gall": 7524,
      "minded": 7525,
      "tests": 7526,
      "consid": 7527,
      "bust": 7528,
      "hiss": 7529,
      "traded": 7530,
      "nests": 7531,
      "midnight": 7532,
      "opinions": 7533,
      "squished": 7534,
      "returning": 7535,
      "umbrell": 7536,
      "##ats": 7537,
      "sprays": 7538,
      "combed": 7539,
      "fascinating": 7540,
      "umbrellas": 7541,
      "carries": 7542,
      "syrup": 7543,
      "faint": 7544,
      "grad": 7545,
      "flora": 7546,
      "experiences": 7547,
      "##ita": 7548,
      "locks": 7549,
      "trusting": 7550,
      "providing": 7551,
      "container": 7552,
      "deserved": 7553,
      "killed": 7554,
      "bothered": 7555,
      "œbe": 7556,
      "defeated": 7557,
      "##pr": 7558,
      "##con": 7559,
      "rosa": 7560,
      "farmers": 7561,
      "##anced": 7562,
      "flashing": 7563,
      "shorter": 7564,
      "examp": 7565,
      "sets": 7566,
      "ooh": 7567,
      "tearing": 7568,
      "##omb": 7569,
      "sculpture": 7570,
      "liam": 7571,
      "flashed": 7572,
      "ass": 7573,
      "checks": 7574,
      "##rench": 7575,
      "inches": 7576,
      "raising": 7577,
      "teles": 7578,
      "bounces": 7579,
      "scrub": 7580,
      "annabelle": 7581,
      "nights": 7582,
      "hotter": 7583,
      "##flies": 7584,
      "applauding": 7585,
      "confidence": 7586,
      "melissa": 7587,
      "grumbled": 7588,
      "glided": 7589,
      "burnt": 7590,
      "lim": 7591,
      "mila": 7592,
      "##ative": 7593,
      "whales": 7594,
      "concent": 7595,
      "concentr": 7596,
      "##ators": 7597,
      "crystals": 7598,
      "underw": 7599,
      "cubs": 7600,
      "telescope": 7601,
      "liza": 7602,
      "sadder": 7603,
      "gardens": 7604,
      "rufus": 7605,
      "convince": 7606,
      "icing": 7607,
      "cheated": 7608,
      "petting": 7609,
      "##ession": 7610,
      "extraord": 7611,
      "necks": 7612,
      "burns": 7613,
      "awhile": 7614,
      "checking": 7615,
      "vio": 7616,
      "##lers": 7617,
      "mamma": 7618,
      "otters": 7619,
      "teams": 7620,
      "soapy": 7621,
      "odd": 7622,
      "visitor": 7623,
      "€¦": 7624,
      "##covered": 7625,
      "meows": 7626,
      "munching": 7627,
      "blown": 7628,
      "barry": 7629,
      "dryer": 7630,
      "member": 7631,
      "##parable": 7632,
      "traveling": 7633,
      "extraordinary": 7634,
      "blur": 7635,
      "collapsed": 7636,
      "grassho": 7637,
      "relaxing": 7638,
      "natu": 7639,
      "##ances": 7640,
      "inseparable": 7641,
      "sirens": 7642,
      "forgives": 7643,
      "prizes": 7644,
      "example": 7645,
      "born": 7646,
      "maj": 7647,
      "types": 7648,
      "##pot": 7649,
      "##ware": 7650,
      "hunting": 7651,
      "torto": 7652,
      "imaginary": 7653,
      "pinching": 7654,
      "lenny": 7655,
      "instrument": 7656,
      "emb": 7657,
      "mona": 7658,
      "behaviour": 7659,
      "playd": 7660,
      "bicycles": 7661,
      "singers": 7662,
      "sprout": 7663,
      "unable": 7664,
      "tortoise": 7665,
      "lil": 7666,
      "waded": 7667,
      "flowing": 7668,
      "pills": 7669,
      "chin": 7670,
      "violet": 7671,
      "waters": 7672,
      "willy": 7673,
      "sprang": 7674,
      "hea": 7675,
      "upside": 7676,
      "##abra": 7677,
      "mommies": 7678,
      "salon": 7679,
      "exploration": 7680,
      "peeped": 7681,
      "##igger": 7682,
      "##adabra": 7683,
      "dock": 7684,
      "opportunity": 7685,
      "longest": 7686,
      "jose": 7687,
      "attitude": 7688,
      "##lest": 7689,
      "discoura": 7690,
      "expression": 7691,
      "conquered": 7692,
      "bomb": 7693,
      "##angle": 7694,
      "distracted": 7695,
      "hamm": 7696,
      "bride": 7697,
      "gradually": 7698,
      "jody": 7699,
      "realizes": 7700,
      "cheaper": 7701,
      "sweaters": 7702,
      "discouraged": 7703,
      "sometime": 7704,
      "trigger": 7705,
      "enem": 7706,
      "coolest": 7707,
      "enemies": 7708,
      "clip": 7709,
      "engines": 7710,
      "crocodiles": 7711,
      "wriggled": 7712,
      "clearly": 7713,
      "burger": 7714,
      "envelopes": 7715,
      "zee": 7716,
      "##getic": 7717,
      "beetles": 7718,
      "flock": 7719,
      "oliver": 7720,
      "##ids": 7721,
      "yawning": 7722,
      "rows": 7723,
      "grasshopper": 7724,
      "swimmer": 7725,
      "countries": 7726,
      "tips": 7727,
      "surely": 7728,
      "heaven": 7729,
      "overwhe": 7730,
      "compete": 7731,
      "overwhel": 7732,
      "jennie": 7733,
      "reappeared": 7734,
      "passes": 7735,
      "chatting": 7736,
      "marking": 7737,
      "miller": 7738,
      "quacking": 7739,
      "glittered": 7740,
      "cafe": 7741,
      "whoosh": 7742,
      "majest": 7743,
      "gallop": 7744,
      "##ouch": 7745,
      "ability": 7746,
      "storms": 7747,
      "martin": 7748,
      "##hera": 7749,
      "haircuts": 7750,
      "weighing": 7751,
      "##ouched": 7752,
      "spilling": 7753,
      "annoying": 7754,
      "##erg": 7755,
      "mattered": 7756,
      "strips": 7757,
      "details": 7758,
      "enjoyable": 7759,
      "##sol": 7760,
      "janet": 7761,
      "cheerfully": 7762,
      "noticing": 7763,
      "approach": 7764,
      "crowded": 7765,
      "common": 7766,
      "tro": 7767,
      "fond": 7768,
      "cheat": 7769,
      "hangers": 7770,
      "whined": 7771,
      "uniforms": 7772,
      "treas": 7773,
      "thicker": 7774,
      "##ippers": 7775,
      "soundly": 7776,
      "joanna": 7777,
      "##rey": 7778,
      "bubbly": 7779,
      "smoking": 7780,
      "companion": 7781,
      "natural": 7782,
      "##balls": 7783,
      "repairman": 7784,
      "skies": 7785,
      "##racadabra": 7786,
      "formed": 7787,
      "prod": 7788,
      "stur": 7789,
      "circ": 7790,
      "airplanes": 7791,
      "jasm": 7792,
      "becomes": 7793,
      "abo": 7794,
      "vibrant": 7795,
      "outfits": 7796,
      "jem": 7797,
      "washes": 7798,
      "bud": 7799,
      "newspapers": 7800,
      "treasured": 7801,
      "miracle": 7802,
      "aboard": 7803,
      "joyfully": 7804,
      "##icate": 7805,
      "abracadabra": 7806,
      "moonlight": 7807,
      "wan": 7808,
      "moat": 7809,
      "freezing": 7810,
      "##boys": 7811,
      "occasion": 7812,
      "pepperoni": 7813,
      "alf": 7814,
      "##cere": 7815,
      "shallow": 7816,
      "##bur": 7817,
      "bund": 7818,
      "##rest": 7819,
      "pleas": 7820,
      "leah": 7821,
      "backs": 7822,
      "scrun": 7823,
      "swirls": 7824,
      "cowboys": 7825,
      "œyay": 7826,
      "clue": 7827,
      "cheating": 7828,
      "commun": 7829,
      "##rem": 7830,
      "chill": 7831,
      "sincere": 7832,
      "jasmine": 7833,
      "##ena": 7834,
      "habit": 7835,
      "clut": 7836,
      "##shadow": 7837,
      "hummed": 7838,
      "sneezes": 7839,
      "wanna": 7840,
      "scattering": 7841,
      "mugs": 7842,
      "blonde": 7843,
      "messes": 7844,
      "erase": 7845,
      "slee": 7846,
      "bulbs": 7847,
      "ratt": 7848,
      "grump": 7849,
      "foreshadow": 7850,
      "cathy": 7851,
      "johny": 7852,
      "models": 7853,
      "compliment": 7854,
      "cells": 7855,
      "satisfaction": 7856,
      "lump": 7857,
      "calmer": 7858,
      "avery": 7859,
      "yumm": 7860,
      "squinted": 7861,
      "##scot": 7862,
      "hmm": 7863,
      "successfully": 7864,
      "##ering": 7865,
      "blushed": 7866,
      "sipped": 7867,
      "##venir": 7868,
      "caterpillars": 7869,
      "souvenir": 7870,
      "slapping": 7871,
      "situations": 7872,
      "leaking": 7873,
      "positive": 7874,
      "bas": 7875,
      "coughed": 7876,
      "meatballs": 7877,
      "explaining": 7878,
      "hopper": 7879,
      "glittery": 7880,
      "smartest": 7881,
      "answering": 7882,
      "bruises": 7883,
      "du": 7884,
      "ank": 7885,
      "tickling": 7886,
      "weighs": 7887,
      "scenery": 7888,
      "burgers": 7889,
      "pilots": 7890,
      "##hole": 7891,
      "local": 7892,
      "fris": 7893,
      "pressing": 7894,
      "rewards": 7895,
      "goodness": 7896,
      "##immered": 7897,
      "traps": 7898,
      "scares": 7899,
      "unfair": 7900,
      "##ruct": 7901,
      "##ints": 7902,
      "cris": 7903,
      "welcoming": 7904,
      "bound": 7905,
      "##chup": 7906,
      "talents": 7907,
      "hundreds": 7908,
      "##bank": 7909,
      "shattered": 7910,
      "rubbish": 7911,
      "rewarding": 7912,
      "bamboo": 7913,
      "roast": 7914,
      "hootie": 7915,
      "possib": 7916,
      "ketchup": 7917,
      "hisses": 7918,
      "cleans": 7919,
      "fireflies": 7920,
      "stuffing": 7921,
      "pantry": 7922,
      "rowing": 7923,
      "''": 7924,
      "crust": 7925,
      "scow": 7926,
      "chickie": 7927,
      "binoc": 7928,
      "practised": 7929,
      "binocular": 7930,
      "##belt": 7931,
      "teapot": 7932,
      "digs": 7933,
      "certainly": 7934,
      "forts": 7935,
      "intently": 7936,
      "sturdy": 7937,
      "horri": 7938,
      "transf": 7939,
      "nate": 7940,
      "baller": 7941,
      "angrily": 7942,
      "pipes": 7943,
      "œwea": 7944,
      "groaned": 7945,
      "bruce": 7946,
      "##its": 7947,
      "apology": 7948,
      "marveled": 7949,
      "mumma": 7950,
      "rebu": 7951,
      "topp": 7952,
      "seatbelt": 7953,
      "tempted": 7954,
      "##scotch": 7955,
      "sandpit": 7956,
      "steven": 7957,
      "##mel": 7958,
      "funn": 7959,
      "runner": 7960,
      "##val": 7961,
      "##amil": 7962,
      "nightmares": 7963,
      "unfamil": 7964,
      "patri": 7965,
      "tunes": 7966,
      "embra": 7967,
      "unfamiliar": 7968,
      "brad": 7969,
      "finishes": 7970,
      "meadows": 7971,
      "microw": 7972,
      "bends": 7973,
      "rhino": 7974,
      "bubbling": 7975,
      "##li": 7976,
      "doorstep": 7977,
      "croaked": 7978,
      "shyly": 7979,
      "jets": 7980,
      "invites": 7981,
      "aston": 7982,
      "tentacles": 7983,
      "energetic": 7984,
      "lookout": 7985,
      "spoiling": 7986,
      "felix": 7987,
      "microwave": 7988,
      "sweeter": 7989,
      "fifi": 7990,
      "##jack": 7991,
      "peaco": 7992,
      "tugging": 7993,
      "exchange": 7994,
      "overwhelmed": 7995,
      "hopscotch": 7996,
      "stepping": 7997,
      "chews": 7998,
      "watermel": 7999,
      "protection": 8000,
      "##aming": 8001,
      "acts": 8002,
      "!'.": 8003,
      "ric": 8004,
      "ripp": 8005,
      "messages": 8006,
      "cages": 8007,
      "chopping": 8008,
      "shrank": 8009,
      "teamwork": 8010,
      "##lish": 8011,
      "moons": 8012,
      "strolled": 8013,
      "boards": 8014,
      "popsic": 8015,
      "playhouse": 8016,
      "randy": 8017,
      "melons": 8018,
      "hesitation": 8019,
      "loyalty": 8020,
      "underwater": 8021,
      "dou": 8022,
      "obst": 8023,
      "defeat": 8024,
      "interest": 8025,
      "gasps": 8026,
      "stew": 8027,
      "cherish": 8028,
      "attend": 8029,
      "fade": 8030,
      "mayor": 8031,
      "guards": 8032,
      "guardian": 8033,
      "ping": 8034,
      "josie": 8035,
      "gemma": 8036,
      "demanding": 8037,
      "binoculars": 8038,
      "jing": 8039,
      "osc": 8040,
      "ballerina": 8041,
      "##ounce": 8042,
      "oscar": 8043,
      "##stand": 8044,
      "alley": 8045,
      "section": 8046,
      "jacka": 8047,
      "ahoy": 8048,
      "crisp": 8049,
      "pouch": 8050,
      "crouched": 8051,
      "raking": 8052,
      "shares": 8053,
      "foam": 8054,
      "buggy": 8055,
      "slithered": 8056,
      "disappointment": 8057,
      "tot": 8058,
      "carol": 8059,
      "petal": 8060,
      "realizing": 8061,
      "differently": 8062,
      "##chief": 8063,
      "tickles": 8064,
      "crickets": 8065,
      "snar": 8066,
      "minnie": 8067,
      "pounced": 8068,
      "œhow": 8069,
      "rips": 8070,
      "meaning": 8071,
      "transformed": 8072,
      "patrick": 8073,
      "fist": 8074,
      "##gar": 8075,
      "recess": 8076,
      "landing": 8077,
      "prog": 8078,
      "peacock": 8079,
      "riverbank": 8080,
      "stores": 8081,
      "sandra": 8082,
      "sweetly": 8083,
      "squeezes": 8084,
      "unwrapped": 8085,
      "ravi": 8086,
      "thie": 8087,
      "icky": 8088,
      "ms": 8089,
      "fries": 8090,
      "##iciest": 8091,
      "##people": 8092,
      "##ial": 8093,
      "allie": 8094,
      "amused": 8095,
      "motorcy": 8096,
      "playdate": 8097,
      "rack": 8098,
      "rosy": 8099,
      "tempt": 8100,
      "ankle": 8101,
      "arrest": 8102,
      "pokes": 8103,
      "##sey": 8104,
      "cherished": 8105,
      "choosing": 8106,
      "judges": 8107,
      "whimpered": 8108,
      "actor": 8109,
      "##oma": 8110,
      "creak": 8111,
      "snorted": 8112,
      "napped": 8113,
      "thrill": 8114,
      ",'": 8115,
      "##rom": 8116,
      "electricity": 8117,
      "claus": 8118,
      "thieves": 8119,
      "fran": 8120,
      "curre": 8121,
      "marley": 8122,
      "##gets": 8123,
      "lulla": 8124,
      "mysteries": 8125,
      "##,\"": 8126,
      "sacks": 8127,
      "blades": 8128,
      "snapping": 8129,
      "centre": 8130,
      "##ulf": 8131,
      "thunderstorm": 8132,
      "whir": 8133,
      "watermelon": 8134,
      "shoel": 8135,
      "wilbur": 8136,
      "##prints": 8137,
      "gates": 8138,
      "jere": 8139,
      "rita": 8140,
      "groups": 8141,
      "styles": 8142,
      "injured": 8143,
      "trusty": 8144,
      "lumberjack": 8145,
      "condition": 8146,
      "stanley": 8147,
      "kneeling": 8148,
      "##emy": 8149,
      "heels": 8150,
      "leans": 8151,
      "temptation": 8152,
      "enemy": 8153,
      "charm": 8154,
      "halfway": 8155,
      "intelligence": 8156,
      "seasons": 8157,
      "gw": 8158,
      "tant": 8159,
      "##ole": 8160,
      "##iring": 8161,
      "trading": 8162,
      "pinchy": 8163,
      "camel": 8164,
      "boil": 8165,
      "frustration": 8166,
      "structures": 8167,
      "##rum": 8168,
      "##anie": 8169,
      "keyhole": 8170,
      "level": 8171,
      "spare": 8172,
      "computers": 8173,
      "##lyn": 8174,
      "##hen": 8175,
      "reversing": 8176,
      "spears": 8177,
      "isna": 8178,
      "wiggles": 8179,
      "scene": 8180,
      "lan": 8181,
      "##inct": 8182,
      "##any": 8183,
      "lizards": 8184,
      "supporting": 8185,
      "kenny": 8186,
      "##othy": 8187,
      "unless": 8188,
      "till": 8189,
      "##lor": 8190,
      "kangaroos": 8191
    }
  }
}