{
  "version": "1.0",
  "truncation": null,
  "padding": null,
  "added_tokens": [
    {
      "id": 0,
      "content": "[PAD]",
      "single_word": false,
      "lstrip": false,
      "rstrip": false,
      "normalized": false,
      "special": true
    },
    {
      "id": 1,
      "content": "[UNK]",
      "single_word": false,
      "lstrip": false,
      "rstrip": false,
      "normalized": false,
      "special": true
    },
    {
      "id": 2,
      "content": "[CLS]",
      "single_word": false,
      "lstrip": false,
      "rstrip": false,
      "normalized": false,
      "special": true
    },
    {
      "id": 3,
      "content": "[SEP]",
      "single_word": false,
      "lstrip": false,
      "rstrip": false,
      "normalized": false,
      "special": true
    },
    {
      "id": 4,
      "content": "[MASK]",
      "single_word": false,
      "lstrip": false,
      "rstrip": false,
      "normalized": false,
      "special": true
    },
    {
      "id": 5,
      "content": "<bos>",
      "single_word": false,
      "lstrip": false,
      "rstrip": false,
      "normalized": false,
      "special": true
    },
    {
      "id": 6,
      "content": "<eos>",
      "single_word": false,
      "lstrip": false,
      "rstrip": false,
      "normalized": false,
      "special": true
    }
  ],
  "normalizer": {
    "type": "Sequence",
    "normalizers": [
      {
        "type": "NFD"
      },
      {
        "type": "Lowercase"
      },
      {
        "type": "StripAccents"
      }
    ]
  },
  "pre_tokenizer": {
    "type": "Whitespace"
  },
  "post_processor": null,
  "decoder": null,
  "model": {
    "type": "WordPiece",
    "unk_token": "[UNK]",
    "continuing_subword_prefix": "##",
    "max_input_chars_per_word": 100,
    "vocab": {
      "[PAD]": 0,
      "[UNK]": 1,
      "[CLS]": 2,
      "[SEP]": 3,
      "[MASK]": 4,
      "<bos>": 5,
      "<eos>": 6,
      "!": 7,
      "\"": 8,
      "#": 9,
      "$": 10,
      "%": 11,
      "&": 12,
      "'": 13,
      "(": 14,
      ")": 15,
      "*": 16,
      "+": 17,
      ",": 18,
      "-": 19,
      ".": 20,
      "/": 21,
      "0": 22,
      "1": 23,
      "2": 24,
      "3": 25,
      "4": 26,
      "5": 27,
      "6": 28,
      "7": 29,
      "8": 30,
      "9": 31,
      ":": 32,
      ";": 33,
      "<": 34,
      "=": 35,
      ">": 36,
      "?": 37,
      "@": 38,
      "[": 39,
      "\\": 40,
      "]": 41,
      "_": 42,
      "`": 43,
      "a": 44,
      "b": 45,
      "c": 46,
      "d": 47,
      "e": 48,
      "f": 49,
      "g": 50,
      "h": 51,
      "i": 52,
      "j": 53,
      "k": 54,
      "l": 55,
      "m": 56,
      "n": 57,
      "o": 58,
      "p": 59,
      "q": 60,
      "r": 61,
      "s": 62,
      "t": 63,
      "u": 64,
      "v": 65,
      "w": 66,
      "x": 67,
      "y": 68,
      "z": 69,
      "{": 70,
      "|": 71,
      "}": 72,
      "~": 73,
      "¡": 74,
      "¢": 75,
      "£": 76,
      "¤": 77,
      "¥": 78,
      "¦": 79,
      "§": 80,
      "¨": 81,
      "©": 82,
      "ª": 83,
      "«": 84,
      "¬": 85,
      "­": 86,
      "®": 87,
      "¯": 88,
      "°": 89,
      "±": 90,
      "²": 91,
      "³": 92,
      "´": 93,
      "µ": 94,
      "¶": 95,
      "·": 96,
      "¸": 97,
      "¹": 98,
      "º": 99,
      "»": 100,
      "¼": 101,
      "½": 102,
      "¾": 103,
      "¿": 104,
      "æ": 105,
      "ð": 106,
      "œ": 107,
      "ƒ": 108,
      "ˆ": 109,
      "˜": 110,
      "–": 111,
      "‘": 112,
      "’": 113,
      "‚": 114,
      "“": 115,
      "”": 116,
      "„": 117,
      "†": 118,
      "‡": 119,
      "•": 120,
      "…": 121,
      "‰": 122,
      "‹": 123,
      "›": 124,
      "€": 125,
      "™": 126,
      "##e": 127,
      "##b": 128,
      "##y": 129,
      "##m": 130,
      "##a": 131,
      "##d": 132,
      "##x": 133,
      "##c": 134,
      "##i": 135,
      "##t": 136,
      "##l": 137,
      "##o": 138,
      "##f": 139,
      "##n": 140,
      "##s": 141,
      "##u": 142,
      "##w": 143,
      "##r": 144,
      "##g": 145,
      "##v": 146,
      "##p": 147,
      "##h": 148,
      "##k": 149,
      "##z": 150,
      "##1": 151,
      "##`": 152,
      "##€": 153,
      "##.": 154,
      "##,": 155,
      "##\"": 156,
      "##j": 157,
      "##!": 158,
      "##0": 159,
      "##5": 160,
      "##8": 161,
      "##[": 162,
      "##¯": 163,
      "##q": 164,
      "##¶": 165,
      "##¬": 166,
      "##9": 167,
      "##\\": 168,
      "##+": 169,
      "##'": 170,
      "##?": 171,
      "##2": 172,
      "##4": 173,
      "##±": 174,
      "##7": 175,
      "##)": 176,
      "##6": 177,
      "##¼": 178,
      "##³": 179,
      "##~": 180,
      "##µ": 181,
      "##/": 182,
      "##(": 183,
      "##_": 184,
      "##©": 185,
      "##•": 186,
      "##-": 187,
      "##:": 188,
      "##@": 189,
      "##3": 190,
      "##&": 191,
      "##}": 192,
      "##<": 193,
      "##=": 194,
      "##œ": 195,
      "##ª": 196,
      "##ƒ": 197,
      "##æ": 198,
      "##˜": 199,
      "##™": 200,
      "##¦": 201,
      "##*": 202,
      "##‚": 203,
      "##ˆ": 204,
      "##£": 205,
      "##½": 206,
      "##›": 207,
      "##{": 208,
      "##“": 209,
      "##‡": 210,
      "##†": 211,
      "##„": 212,
      "##º": 213,
      "##;": 214,
      "##²": 215,
      "##‹": 216,
      "##’": 217,
      "##…": 218,
      "##¢": 219,
      "##¡": 220,
      "##”": 221,
      "##>": 222,
      "##–": 223,
      "##¾": 224,
      "##ð": 225,
      "##¹": 226,
      "##‰": 227,
      "##°": 228,
      "###": 229,
      "##´": 230,
      "##®": 231,
      "##]": 232,
      "##$": 233,
      "##¿": 234,
      "##‘": 235,
      "##¨": 236,
      "##¥": 237,
      "##he": 238,
      "the": 239,
      "##nd": 240,
      "##ed": 241,
      "and": 242,
      "to": 243,
      "##er": 244,
      "wa": 245,
      "##ou": 246,
      "##in": 247,
      "he": 248,
      "##re": 249,
      "was": 250,
      "sa": 251,
      "##ing": 252,
      "##om": 253,
      "she": 254,
      "##ar": 255,
      "##il": 256,
      "##it": 257,
      "##ay": 258,
      "it": 259,
      "##id": 260,
      "##at": 261,
      "they": 262,
      "ha": 263,
      "##en": 264,
      "##is": 265,
      "##an": 266,
      "on": 267,
      "th": 268,
      "##or": 269,
      "##im": 270,
      "##on": 271,
      "##ut": 272,
      "her": 273,
      "##ll": 274,
      "##le": 275,
      "##et": 276,
      "##ot": 277,
      "##ir": 278,
      "##es": 279,
      "in": 280,
      "##ow": 281,
      "you": 282,
      "##ck": 283,
      "##ld": 284,
      "##oo": 285,
      "said": 286,
      "be": 287,
      "##ily": 288,
      "st": 289,
      "##ig": 290,
      "tim": 291,
      "so": 292,
      "##ce": 293,
      "##pp": 294,
      "wit": 295,
      "his": 296,
      "with": 297,
      "mom": 298,
      "##ve": 299,
      "lily": 300,
      "of": 301,
      "##ked": 302,
      "fr": 303,
      "that": 304,
      "pl": 305,
      "##ery": 306,
      "##am": 307,
      "##ad": 308,
      "##ke": 309,
      "but": 310,
      "##nt": 311,
      "day": 312,
      "up": 313,
      "##ie": 314,
      "play": 315,
      "had": 316,
      "##el": 317,
      "for": 318,
      "wh": 319,
      "##st": 320,
      "##un": 321,
      "##ould": 322,
      "an": 323,
      "##my": 324,
      "##ent": 325,
      "li": 326,
      "##ra": 327,
      "##ch": 328,
      "do": 329,
      "happ": 330,
      "one": 331,
      "sh": 332,
      "want": 333,
      "##itt": 334,
      "##her": 335,
      "not": 336,
      "there": 337,
      "##ly": 338,
      "##ome": 339,
      "very": 340,
      "##se": 341,
      "##ound": 342,
      "as": 343,
      "ba": 344,
      "litt": 345,
      "little": 346,
      "ne": 347,
      "time": 348,
      "##ht": 349,
      "##al": 350,
      "ma": 351,
      "sm": 352,
      "happy": 353,
      "is": 354,
      "big": 355,
      "loo": 356,
      "saw": 357,
      "##iend": 358,
      "friend": 359,
      ".\"": 360,
      "##ry": 361,
      "re": 362,
      "bo": 363,
      "##ur": 364,
      "##ter": 365,
      "##ug": 366,
      "!\"": 367,
      "##ere": 368,
      "##ved": 369,
      "lo": 370,
      "once": 371,
      "were": 372,
      "##ore": 373,
      "se": 374,
      "ev": 375,
      "go": 376,
      "sp": 377,
      "him": 378,
      "too": 379,
      "ca": 380,
      "##ide": 381,
      "we": 382,
      "are": 383,
      "tom": 384,
      "at": 385,
      "##irl": 386,
      "can": 387,
      "##ard": 388,
      "wanted": 389,
      "ben": 390,
      "whe": 391,
      "##ill": 392,
      "girl": 393,
      "upon": 394,
      "##ec": 395,
      "their": 396,
      "out": 397,
      "them": 398,
      "##ys": 399,
      "##fu": 400,
      "##way": 401,
      "did": 402,
      "smil": 403,
      "##ind": 404,
      "could": 405,
      "have": 406,
      "no": 407,
      "##ri": 408,
      "##ted": 409,
      "##ver": 410,
      "##ain": 411,
      "ex": 412,
      "##hed": 413,
      "all": 414,
      "ar": 415,
      "went": 416,
      "hel": 417,
      "su": 418,
      "##ic": 419,
      "when": 420,
      "ta": 421,
      "help": 422,
      "##ful": 423,
      "##ood": 424,
      "?\"": 425,
      "friends": 426,
      "##hing": 427,
      "nam": 428,
      "##ight": 429,
      "kn": 430,
      "what": 431,
      "le": 432,
      "##um": 433,
      "back": 434,
      "##ark": 435,
      "##one": 436,
      "cl": 437,
      "from": 438,
      "fun": 439,
      "al": 440,
      "then": 441,
      "##all": 442,
      "timmy": 443,
      "ro": 444,
      "star": 445,
      "every": 446,
      "sc": 447,
      "smiled": 448,
      "named": 449,
      "##oug": 450,
      "loved": 451,
      "##side": 452,
      "man": 453,
      "some": 454,
      "##elt": 455,
      "asked": 456,
      "see": 457,
      "##ick": 458,
      "me": 459,
      "like": 460,
      "fe": 461,
      "##op": 462,
      "felt": 463,
      "br": 464,
      "looked": 465,
      "around": 466,
      "##ep": 467,
      "##ame": 468,
      "look": 469,
      "##omet": 470,
      "bir": 471,
      "would": 472,
      "somet": 473,
      "##get": 474,
      "fa": 475,
      "##ong": 476,
      "boy": 477,
      "##ss": 478,
      "bird": 479,
      "pr": 480,
      "##dd": 481,
      "jo": 482,
      "##est": 483,
      "##ings": 484,
      "ag": 485,
      "wor": 486,
      "make": 487,
      "mommy": 488,
      "##ade": 489,
      "car": 490,
      "than": 491,
      ",\"": 492,
      "##own": 493,
      "tre": 494,
      "ran": 495,
      "##gether": 496,
      "together": 497,
      "la": 498,
      "away": 499,
      "dad": 500,
      "says": 501,
      "started": 502,
      "##ice": 503,
      "##oud": 504,
      "something": 505,
      "##ared": 506,
      "made": 507,
      "##na": 508,
      "co": 509,
      "fl": 510,
      "##ther": 511,
      "##ited": 512,
      "park": 513,
      "sad": 514,
      "good": 515,
      "other": 516,
      "ch": 517,
      "exc": 518,
      "new": 519,
      "put": 520,
      "##out": 521,
      "who": 522,
      "hug": 523,
      "mu": 524,
      "##ble": 525,
      "again": 526,
      "let": 527,
      "home": 528,
      "sam": 529,
      "found": 530,
      "dec": 531,
      "##pped": 532,
      "##ried": 533,
      "wal": 534,
      "##ure": 535,
      "##ack": 536,
      "get": 537,
      "##ach": 538,
      "playing": 539,
      "##ought": 540,
      "gra": 541,
      "##pl": 542,
      "sw": 543,
      "##ous": 544,
      "things": 545,
      "bl": 546,
      "excited": 547,
      "your": 548,
      "liked": 549,
      "got": 550,
      "##ny": 551,
      "##uck": 552,
      "##king": 553,
      "##ge": 554,
      "##ided": 555,
      "decided": 556,
      "came": 557,
      "my": 558,
      "dog": 559,
      "scared": 560,
      "##ust": 561,
      "down": 562,
      "this": 563,
      "bec": 564,
      "##ouse": 565,
      "ab": 566,
      "find": 567,
      "pa": 568,
      "care": 569,
      "will": 570,
      "po": 571,
      "gr": 572,
      "sara": 573,
      "feel": 574,
      "anna": 575,
      "##ell": 576,
      "max": 577,
      "##ist": 578,
      "bu": 579,
      "##as": 580,
      "##arn": 581,
      "##ave": 582,
      "##nder": 583,
      "##ways": 584,
      "##ess": 585,
      "always": 586,
      "mo": 587,
      "##ook": 588,
      "took": 589,
      "about": 590,
      "lot": 591,
      "##ers": 592,
      "toys": 593,
      "kne": 594,
      "didn": 595,
      "##ged": 596,
      "##ise": 597,
      "##bb": 598,
      "old": 599,
      "outside": 600,
      "tree": 601,
      "##ite": 602,
      "ho": 603,
      "how": 604,
      "##ally": 605,
      "ball": 606,
      "thought": 607,
      "##ant": 608,
      "af": 609,
      "sor": 610,
      "more": 611,
      "##ma": 612,
      "##eci": 613,
      "##ened": 614,
      "##ched": 615,
      "learn": 616,
      "##ret": 617,
      "pu": 618,
      "tw": 619,
      "know": 620,
      "cat": 621,
      "##to": 622,
      "take": 623,
      "mi": 624,
      "laug": 625,
      "pe": 626,
      "speci": 627,
      "special": 628,
      "don": 629,
      "sudd": 630,
      "sudden": 631,
      "inside": 632,
      "knew": 633,
      "##ty": 634,
      "sorry": 635,
      "##ive": 636,
      "##ro": 637,
      "any": 638,
      "jack": 639,
      "##ff": 640,
      "suddenly": 641,
      "just": 642,
      "toy": 643,
      "##ue": 644,
      "after": 645,
      "tr": 646,
      "show": 647,
      "if": 648,
      "##ink": 649,
      "##lly": 650,
      "or": 651,
      "run": 652,
      "ra": 653,
      "sl": 654,
      "much": 655,
      "##ish": 656,
      "hand": 657,
      "house": 658,
      "sun": 659,
      "op": 660,
      "sk": 661,
      "clo": 662,
      "into": 663,
      "fin": 664,
      "tried": 665,
      "en": 666,
      "water": 667,
      "##ea": 668,
      "##ate": 669,
      "yes": 670,
      "told": 671,
      "each": 672,
      "over": 673,
      "proud": 674,
      "##ump": 675,
      "gave": 676,
      "heard": 677,
      "never": 678,
      "##dy": 679,
      "##by": 680,
      "ok": 681,
      "##use": 682,
      "eat": 683,
      "room": 684,
      "expl": 685,
      "##other": 686,
      "pick": 687,
      "pret": 688,
      "qu": 689,
      "##lled": 690,
      "gre": 691,
      "couldn": 692,
      "thank": 693,
      "played": 694,
      "##ion": 695,
      "mia": 696,
      "sha": 697,
      "come": 698,
      "##ause": 699,
      "wat": 700,
      "hugged": 701,
      "because": 702,
      "##ious": 703,
      "off": 704,
      "bear": 705,
      "now": 706,
      "com": 707,
      "nice": 708,
      "##oth": 709,
      "fo": 710,
      "box": 711,
      "##our": 712,
      "str": 713,
      "need": 714,
      "bet": 715,
      "many": 716,
      "##ile": 717,
      "##fe": 718,
      "##ft": 719,
      "small": 720,
      "##eep": 721,
      "long": 722,
      "##ving": 723,
      "##kes": 724,
      "##sed": 725,
      "##gry": 726,
      "##imal": 727,
      "animal": 728,
      "try": 729,
      "end": 730,
      "##ough": 731,
      "unt": 732,
      "##cy": 733,
      "##ild": 734,
      "until": 735,
      "even": 736,
      "##urt": 737,
      "##ort": 738,
      "##elf": 739,
      "soon": 740,
      "##iz": 741,
      "kind": 742,
      "love": 743,
      "learned": 744,
      "bea": 745,
      "everyone": 746,
      "by": 747,
      "ad": 748,
      "better": 749,
      "flow": 750,
      "spot": 751,
      "##ine": 752,
      "best": 753,
      "##urp": 754,
      "say": 755,
      "##mp": 756,
      "##ady": 757,
      "##ream": 758,
      "cle": 759,
      "##urn": 760,
      "##ace": 761,
      "##ves": 762,
      "fi": 763,
      "gard": 764,
      "garden": 765,
      "fast": 766,
      "che": 767,
      "careful": 768,
      "##ber": 769,
      "beaut": 770,
      "bra": 771,
      "##ies": 772,
      "thanked": 773,
      "sky": 774,
      "laughed": 775,
      "jump": 776,
      "gl": 777,
      "loud": 778,
      "ow": 779,
      "list": 780,
      "##ear": 781,
      "##ct": 782,
      "##iny": 783,
      "wo": 784,
      "beauti": 785,
      "##sh": 786,
      "##lew": 787,
      "lots": 788,
      "beautiful": 789,
      "hard": 790,
      "##self": 791,
      "still": 792,
      "animals": 793,
      "fam": 794,
      "joh": 795,
      "under": 796,
      "lu": 797,
      "hurt": 798,
      "stay": 799,
      "john": 800,
      "mum": 801,
      "##ning": 802,
      "both": 803,
      "dan": 804,
      "##ree": 805,
      "way": 806,
      "rem": 807,
      "two": 808,
      "##cks": 809,
      "##hes": 810,
      "bad": 811,
      "##be": 812,
      "safe": 813,
      "col": 814,
      "##ool": 815,
      "di": 816,
      "red": 817,
      "its": 818,
      "book": 819,
      "imp": 820,
      "tow": 821,
      "##ople": 822,
      "##ane": 823,
      "lived": 824,
      "people": 825,
      "##th": 826,
      "##em": 827,
      "lucy": 828,
      "okay": 829,
      "walked": 830,
      "should": 831,
      "brave": 832,
      "##urpr": 833,
      "surpr": 834,
      "##ase": 835,
      "##ished": 836,
      "angry": 837,
      "family": 838,
      "adv": 839,
      "##ress": 840,
      "##igh": 841,
      "flew": 842,
      "called": 843,
      "stor": 844,
      "##ip": 845,
      "##ept": 846,
      "##eet": 847,
      "##led": 848,
      "fore": 849,
      "kept": 850,
      "fly": 851,
      "##ect": 852,
      "share": 853,
      "##fore": 854,
      "before": 855,
      "sure": 856,
      "##ger": 857,
      "while": 858,
      "##xt": 859,
      "##ised": 860,
      "##dded": 861,
      "pic": 862,
      "keep": 863,
      "door": 864,
      "going": 865,
      "pretty": 866,
      "clean": 867,
      "dra": 868,
      "next": 869,
      "advent": 870,
      "##ary": 871,
      "##ied": 872,
      "may": 873,
      "give": 874,
      "noise": 875,
      "far": 876,
      "con": 877,
      "opened": 878,
      "shiny": 879,
      "doll": 880,
      "un": 881,
      "wind": 882,
      "cry": 883,
      "id": 884,
      "real": 885,
      "grand": 886,
      "why": 887,
      "##illy": 888,
      "##end": 889,
      "sto": 890,
      "##so": 891,
      "turn": 892,
      "explore": 893,
      "ground": 894,
      "also": 895,
      "##les": 896,
      "€™": 897,
      "##ner": 898,
      "ey": 899,
      "idea": 900,
      "sn": 901,
      "##art": 902,
      "color": 903,
      "##ap": 904,
      "nodded": 905,
      "war": 906,
      "feeling": 907,
      "where": 908,
      "blue": 909,
      "bob": 910,
      "picked": 911,
      "##imb": 912,
      "walking": 913,
      "clos": 914,
      "##thing": 915,
      "climb": 916,
      "thr": 917,
      "##ting": 918,
      "has": 919,
      "bed": 920,
      "smile": 921,
      "ple": 922,
      "wait": 923,
      "adventure": 924,
      "##oy": 925,
      "being": 926,
      "finally": 927,
      "looking": 928,
      "da": 929,
      "##iced": 930,
      "maybe": 931,
      "##ture": 932,
      "diff": 933,
      "wr": 934,
      "##and": 935,
      "food": 936,
      "listen": 937,
      "##joy": 938,
      "picture": 939,
      "think": 940,
      "del": 941,
      "remem": 942,
      "truck": 943,
      "tra": 944,
      "eyes": 945,
      "##ught": 946,
      "bro": 947,
      "gi": 948,
      "repl": 949,
      "stopped": 950,
      "great": 951,
      "bre": 952,
      "ru": 953,
      "here": 954,
      "vo": 955,
      "##qu": 956,
      "walk": 957,
      "year": 958,
      "enjoy": 959,
      "wonder": 960,
      "##able": 961,
      "remember": 962,
      "hands": 963,
      "sue": 964,
      "quick": 965,
      "##per": 966,
      "ever": 967,
      "cur": 968,
      "head": 969,
      "flowers": 970,
      "import": 971,
      "forest": 972,
      "##og": 973,
      "ac": 974,
      "noticed": 975,
      "near": 976,
      "##bbit": 977,
      "app": 978,
      "dis": 979,
      "##ized": 980,
      "watch": 981,
      "##irst": 982,
      "rabbit": 983,
      "fish": 984,
      "##llow": 985,
      "important": 986,
      "##age": 987,
      "ama": 988,
      "us": 989,
      "rain": 990,
      "sound": 991,
      "slide": 992,
      "bun": 993,
      "amaz": 994,
      "replied": 995,
      "blo": 996,
      "work": 997,
      "stop": 998,
      "follow": 999,
      "rock": 1000,
      "mor": 1001,
      "showed": 1002,
      "tal": 1003,
      "mean": 1004,
      "tou": 1005,
      "##gan": 1006,
      "##ces": 1007,
      "right": 1008,
      "sarah": 1009,
      "ask": 1010,
      "##bbed": 1011,
      "differ": 1012,
      "mag": 1013,
      "goodby": 1014,
      "our": 1015,
      "bright": 1016,
      "##day": 1017,
      "watched": 1018,
      "goodbye": 1019,
      "hop": 1020,
      "use": 1021,
      "strong": 1022,
      "am": 1023,
      "stick": 1024,
      "quickly": 1025,
      "been": 1026,
      "voice": 1027,
      "daddy": 1028,
      "please": 1029,
      "yell": 1030,
      "##ath": 1031,
      "jane": 1032,
      "different": 1033,
      "child": 1034,
      "##co": 1035,
      "boat": 1036,
      "##che": 1037,
      "##llo": 1038,
      "first": 1039,
      "became": 1040,
      "face": 1041,
      "place": 1042,
      "##ange": 1043,
      "high": 1044,
      "does": 1045,
      "##ng": 1046,
      "store": 1047,
      "closer": 1048,
      "curious": 1049,
      "##ak": 1050,
      "warm": 1051,
      "sand": 1052,
      "##ummy": 1053,
      "dress": 1054,
      "bel": 1055,
      "cook": 1056,
      "joe": 1057,
      "hello": 1058,
      "tell": 1059,
      "##ila": 1060,
      "forg": 1061,
      "em": 1062,
      "three": 1063,
      "fav": 1064,
      "grandma": 1065,
      "##oon": 1066,
      "##ount": 1067,
      "open": 1068,
      "lila": 1069,
      "##leep": 1070,
      "night": 1071,
      "cake": 1072,
      "##more": 1073,
      "pie": 1074,
      "anymore": 1075,
      "bunny": 1076,
      "butter": 1077,
      "mon": 1078,
      "##iss": 1079,
      "##ached": 1080,
      "lea": 1081,
      "flo": 1082,
      "sweet": 1083,
      "##ired": 1084,
      "kid": 1085,
      "##ull": 1086,
      "only": 1087,
      "kit": 1088,
      "pain": 1089,
      "grabbed": 1090,
      "duck": 1091,
      "##here": 1092,
      "##isy": 1093,
      "fell": 1094,
      "fire": 1095,
      "birds": 1096,
      "cont": 1097,
      "##ered": 1098,
      "jumped": 1099,
      "glad": 1100,
      "pet": 1101,
      "bit": 1102,
      "##chen": 1103,
      "per": 1104,
      "kitchen": 1105,
      "cra": 1106,
      "helped": 1107,
      "sees": 1108,
      "##outed": 1109,
      "dr": 1110,
      "hear": 1111,
      "sing": 1112,
      "##ul": 1113,
      "prin": 1114,
      "happened": 1115,
      "squ": 1116,
      "grass": 1117,
      "yummy": 1118,
      "tri": 1119,
      "ready": 1120,
      "tommy": 1121,
      "sna": 1122,
      "story": 1123,
      "shouted": 1124,
      "beh": 1125,
      "##nts": 1126,
      "really": 1127,
      "brother": 1128,
      "cr": 1129,
      "reached": 1130,
      "realized": 1131,
      "lady": 1132,
      "##ank": 1133,
      "##ey": 1134,
      "draw": 1135,
      "sho": 1136,
      "having": 1137,
      "##ins": 1138,
      "through": 1139,
      "favor": 1140,
      "mess": 1141,
      "cre": 1142,
      "hat": 1143,
      "favorite": 1144,
      "game": 1145,
      "less": 1146,
      "ate": 1147,
      "underst": 1148,
      "soft": 1149,
      "##where": 1150,
      "pare": 1151,
      "##zy": 1152,
      "thing": 1153,
      "##ather": 1154,
      "##imes": 1155,
      "cu": 1156,
      "magic": 1157,
      "pretend": 1158,
      "began": 1159,
      "world": 1160,
      "looks": 1161,
      "##ken": 1162,
      "butterf": 1163,
      "himself": 1164,
      "kids": 1165,
      "##fully": 1166,
      "making": 1167,
      "done": 1168,
      "cut": 1169,
      "##ppy": 1170,
      "rest": 1171,
      "##bo": 1172,
      "mouse": 1173,
      "coming": 1174,
      "sometimes": 1175,
      "pond": 1176,
      "prom": 1177,
      "waved": 1178,
      "ted": 1179,
      "tired": 1180,
      "##ely": 1181,
      "fix": 1182,
      "worry": 1183,
      "cars": 1184,
      "wow": 1185,
      "delic": 1186,
      "fill": 1187,
      "name": 1188,
      "flower": 1189,
      "##ater": 1190,
      "touch": 1191,
      "hold": 1192,
      "sally": 1193,
      "catch": 1194,
      "##ster": 1195,
      "##air": 1196,
      "##cked": 1197,
      "funny": 1198,
      "another": 1199,
      "hair": 1200,
      "used": 1201,
      "farm": 1202,
      "tast": 1203,
      "seen": 1204,
      "top": 1205,
      "##ient": 1206,
      "parents": 1207,
      "surprise": 1208,
      "##rel": 1209,
      "daisy": 1210,
      "te": 1211,
      "green": 1212,
      "cool": 1213,
      "cla": 1214,
      "doing": 1215,
      "hopped": 1216,
      "cried": 1217,
      "##oney": 1218,
      "blocks": 1219,
      "##iver": 1220,
      "light": 1221,
      "din": 1222,
      "\".": 1223,
      "years": 1224,
      "ste": 1225,
      "lesson": 1226,
      "read": 1227,
      "##ation": 1228,
      "snow": 1229,
      "floor": 1230,
      "wood": 1231,
      "dri": 1232,
      "##pe": 1233,
      "frog": 1234,
      "##ren": 1235,
      "behind": 1236,
      "trees": 1237,
      "##ards": 1238,
      "full": 1239,
      "running": 1240,
      "bow": 1241,
      "window": 1242,
      "worked": 1243,
      "sat": 1244,
      "smell": 1245,
      "slow": 1246,
      "dark": 1247,
      "par": 1248,
      "dro": 1249,
      "wear": 1250,
      "##ons": 1251,
      "yellow": 1252,
      "##ph": 1253,
      "likes": 1254,
      "paper": 1255,
      "wished": 1256,
      "swim": 1257,
      "##ued": 1258,
      "sleep": 1259,
      "##ag": 1260,
      "##us": 1261,
      "mar": 1262,
      "happily": 1263,
      "##ced": 1264,
      "bag": 1265,
      "pat": 1266,
      "baby": 1267,
      "surprised": 1268,
      "teddy": 1269,
      "butterfly": 1270,
      "el": 1271,
      "jim": 1272,
      "carefully": 1273,
      "set": 1274,
      "swing": 1275,
      "benny": 1276,
      "ice": 1277,
      "lost": 1278,
      "cold": 1279,
      "remembered": 1280,
      "held": 1281,
      "##orn": 1282,
      "hole": 1283,
      "own": 1284,
      "##rew": 1285,
      "laugh": 1286,
      "needed": 1287,
      "perf": 1288,
      "buy": 1289,
      "move": 1290,
      "##uff": 1291,
      "left": 1292,
      "billy": 1293,
      "fair": 1294,
      "anything": 1295,
      "dream": 1296,
      "##cess": 1297,
      "##reed": 1298,
      "tall": 1299,
      "wrong": 1300,
      "enjoyed": 1301,
      "books": 1302,
      "arri": 1303,
      "air": 1304,
      "followed": 1305,
      "children": 1306,
      "bus": 1307,
      "delicious": 1308,
      "hun": 1309,
      "mat": 1310,
      "someone": 1311,
      "table": 1312,
      "molly": 1313,
      "finished": 1314,
      "hot": 1315,
      "friendly": 1316,
      "tea": 1317,
      "contin": 1318,
      "dir": 1319,
      "ll": 1320,
      "##ndy": 1321,
      "##ens": 1322,
      "herself": 1323,
      "cream": 1324,
      "close": 1325,
      "hill": 1326,
      "##ross": 1327,
      "amy": 1328,
      "##ds": 1329,
      "understand": 1330,
      "##lf": 1331,
      "##ined": 1332,
      "might": 1333,
      "hid": 1334,
      "bug": 1335,
      "everywhere": 1336,
      "cast": 1337,
      "arrived": 1338,
      "res": 1339,
      "gent": 1340,
      "arm": 1341,
      "else": 1342,
      "wonderful": 1343,
      "tight": 1344,
      "forgot": 1345,
      "rel": 1346,
      "##ield": 1347,
      "pink": 1348,
      "squir": 1349,
      "colors": 1350,
      "build": 1351,
      "jen": 1352,
      "sig": 1353,
      "broken": 1354,
      "able": 1355,
      "gone": 1356,
      "filled": 1357,
      "song": 1358,
      "wall": 1359,
      "squirrel": 1360,
      "everything": 1361,
      "agreed": 1362,
      "gu": 1363,
      "creat": 1364,
      "continued": 1365,
      "count": 1366,
      "##asure": 1367,
      "lion": 1368,
      "##ama": 1369,
      "wants": 1370,
      "##room": 1371,
      "leaves": 1372,
      "##ich": 1373,
      "##sk": 1374,
      "later": 1375,
      "enough": 1376,
      "ju": 1377,
      "moment": 1378,
      "vis": 1379,
      "morning": 1380,
      "mama": 1381,
      "joy": 1382,
      "##ast": 1383,
      "getting": 1384,
      "cookies": 1385,
      "fight": 1386,
      "##shed": 1387,
      "stayed": 1388,
      "break": 1389,
      "##ence": 1390,
      "poin": 1391,
      "mother": 1392,
      "##av": 1393,
      "beach": 1394,
      "scary": 1395,
      "few": 1396,
      "##ance": 1397,
      "dinner": 1398,
      "spark": 1399,
      "fall": 1400,
      "hungry": 1401,
      "turned": 1402,
      "today": 1403,
      "wet": 1404,
      "##pa": 1405,
      "##gon": 1406,
      "amazing": 1407,
      "##row": 1408,
      "trying": 1409,
      "perfect": 1410,
      "plan": 1411,
      "makes": 1412,
      "##ries": 1413,
      "castle": 1414,
      "others": 1415,
      "fur": 1416,
      "climbed": 1417,
      "pen": 1418,
      "talk": 1419,
      "##oup": 1420,
      "pictures": 1421,
      "mus": 1422,
      "spl": 1423,
      "white": 1424,
      "met": 1425,
      "fox": 1426,
      "oh": 1427,
      "listened": 1428,
      "brown": 1429,
      "smiles": 1430,
      "balloon": 1431,
      "jill": 1432,
      "clot": 1433,
      "##man": 1434,
      "##oring": 1435,
      "pol": 1436,
      "ear": 1437,
      "leave": 1438,
      "clothes": 1439,
      "alone": 1440,
      "shar": 1441,
      "puppy": 1442,
      "tail": 1443,
      "##ctor": 1444,
      "hi": 1445,
      "##ated": 1446,
      "##ash": 1447,
      "##amp": 1448,
      "start": 1449,
      "##rot": 1450,
      "deep": 1451,
      "brought": 1452,
      "bi": 1453,
      "sear": 1454,
      "strange": 1455,
      "sit": 1456,
      "grow": 1457,
      "##ister": 1458,
      "##elc": 1459,
      "woods": 1460,
      "##der": 1461,
      "sail": 1462,
      "pulled": 1463,
      "danger": 1464,
      "moral": 1465,
      "##ling": 1466,
      "won": 1467,
      "welc": 1468,
      "##pping": 1469,
      "##ott": 1470,
      "ride": 1471,
      "asks": 1472,
      "treat": 1473,
      "##zz": 1474,
      "##ake": 1475,
      "visit": 1476,
      "mark": 1477,
      "##ches": 1478,
      "fluff": 1479,
      "wasn": 1480,
      "music": 1481,
      "##med": 1482,
      "amazed": 1483,
      "hide": 1484,
      "fluffy": 1485,
      "waited": 1486,
      "well": 1487,
      "towards": 1488,
      "##ang": 1489,
      "land": 1490,
      "pre": 1491,
      "##ven": 1492,
      "field": 1493,
      "silly": 1494,
      "flying": 1495,
      "##ower": 1496,
      "##iet": 1497,
      "belie": 1498,
      "##ead": 1499,
      "cloud": 1500,
      "shared": 1501,
      "runs": 1502,
      "owner": 1503,
      "##ained": 1504,
      "slowly": 1505,
      "##key": 1506,
      "quiet": 1507,
      "living": 1508,
      "job": 1509,
      "##ames": 1510,
      "##ever": 1511,
      "promised": 1512,
      "side": 1513,
      "##gs": 1514,
      "##la": 1515,
      "##cle": 1516,
      "lake": 1517,
      "##orm": 1518,
      "thinks": 1519,
      "##pes": 1520,
      "##cket": 1521,
      "sister": 1522,
      "##ugg": 1523,
      "paint": 1524,
      "mary": 1525,
      "##thy": 1526,
      "##igg": 1527,
      "na": 1528,
      "party": 1529,
      "must": 1530,
      "cho": 1531,
      "##ually": 1532,
      "race": 1533,
      "money": 1534,
      "bar": 1535,
      "##ises": 1536,
      "##avy": 1537,
      "worried": 1538,
      "##sw": 1539,
      "##sp": 1540,
      "answ": 1541,
      "pot": 1542,
      "faster": 1543,
      "princess": 1544,
      "dance": 1545,
      "colorful": 1546,
      "grate": 1547,
      "pieces": 1548,
      "##ased": 1549,
      "bran": 1550,
      "mr": 1551,
      "bott": 1552,
      "luck": 1553,
      "cup": 1554,
      "broke": 1555,
      "pro": 1556,
      "win": 1557,
      "grateful": 1558,
      "such": 1559,
      "bigger": 1560,
      "train": 1561,
      "##ze": 1562,
      "candy": 1563,
      "pull": 1564,
      "ele": 1565,
      "monster": 1566,
      "reach": 1567,
      "blank": 1568,
      "black": 1569,
      "farmer": 1570,
      "stu": 1571,
      "join": 1572,
      "welcome": 1573,
      "river": 1574,
      "##app": 1575,
      "##less": 1576,
      "call": 1577,
      "inst": 1578,
      "treasure": 1579,
      "lun": 1580,
      "blanket": 1581,
      "scream": 1582,
      "comp": 1583,
      "magical": 1584,
      "dragon": 1585,
      "smart": 1586,
      "bee": 1587,
      "kitt": 1588,
      "dangerous": 1589,
      "bike": 1590,
      "##uit": 1591,
      "event": 1592,
      "sign": 1593,
      "most": 1594,
      "helping": 1595,
      "across": 1596,
      "nap": 1597,
      "min": 1598,
      "spr": 1599,
      "miss": 1600,
      "jimmy": 1601,
      "##outh": 1602,
      "disapp": 1603,
      "mouth": 1604,
      "##set": 1605,
      "##let": 1606,
      "##icy": 1607,
      "words": 1608,
      "pass": 1609,
      "stre": 1610,
      "dolls": 1611,
      "acc": 1612,
      "tower": 1613,
      "believe": 1614,
      "##eared": 1615,
      "doctor": 1616,
      "threw": 1617,
      "stepped": 1618,
      "heavy": 1619,
      "##ming": 1620,
      "bite": 1621,
      "bowl": 1622,
      "dirty": 1623,
      "twins": 1624,
      "same": 1625,
      "##oom": 1626,
      "crying": 1627,
      "##de": 1628,
      "##ored": 1629,
      "##ident": 1630,
      "heal": 1631,
      "bath": 1632,
      "hig": 1633,
      "##red": 1634,
      "carrot": 1635,
      "##fort": 1636,
      "##chool": 1637,
      "##ment": 1638,
      "closed": 1639,
      "##bble": 1640,
      "mummy": 1641,
      "##lla": 1642,
      "heart": 1643,
      "buck": 1644,
      "fruit": 1645,
      "cour": 1646,
      "stuck": 1647,
      "att": 1648,
      "plant": 1649,
      "school": 1650,
      "without": 1651,
      "##os": 1652,
      "mix": 1653,
      "emma": 1654,
      "eating": 1655,
      "hoped": 1656,
      "##ipped": 1657,
      "fairy": 1658,
      "bask": 1659,
      "basket": 1660,
      "##iting": 1661,
      "feels": 1662,
      "##cher": 1663,
      "chair": 1664,
      "town": 1665,
      "cray": 1666,
      "butt": 1667,
      "wouldn": 1668,
      "course": 1669,
      "clapped": 1670,
      "stand": 1671,
      "coll": 1672,
      "ve": 1673,
      "gentle": 1674,
      "pack": 1675,
      "eventually": 1676,
      "##ier": 1677,
      "along": 1678,
      "drove": 1679,
      "pushed": 1680,
      "##ors": 1681,
      "##br": 1682,
      "##issed": 1683,
      "higher": 1684,
      "smo": 1685,
      "neigh": 1686,
      "free": 1687,
      "swings": 1688,
      "sec": 1689,
      "kno": 1690,
      "pocket": 1691,
      "je": 1692,
      "##orrow": 1693,
      "teacher": 1694,
      "hit": 1695,
      "accident": 1696,
      "pers": 1697,
      "neighb": 1698,
      "har": 1699,
      "##ord": 1700,
      "games": 1701,
      "piece": 1702,
      "##ourn": 1703,
      "cheered": 1704,
      "wings": 1705,
      "forget": 1706,
      "journ": 1707,
      "explained": 1708,
      "mine": 1709,
      "yard": 1710,
      "longer": 1711,
      "##que": 1712,
      "##ible": 1713,
      "dry": 1714,
      "##umb": 1715,
      "throw": 1716,
      "##ire": 1717,
      "noises": 1718,
      "##itting": 1719,
      "sang": 1720,
      "late": 1721,
      "young": 1722,
      "happen": 1723,
      "hugs": 1724,
      "##ract": 1725,
      "turns": 1726,
      "stories": 1727,
      "singing": 1728,
      "tiny": 1729,
      "instead": 1730,
      "mad": 1731,
      "lon": 1732,
      "##sc": 1733,
      "shoes": 1734,
      "##vel": 1735,
      "eleph": 1736,
      "king": 1737,
      "elephant": 1738,
      "adventures": 1739,
      "owl": 1740,
      "apple": 1741,
      "trou": 1742,
      "neck": 1743,
      "lunch": 1744,
      "monkey": 1745,
      "sea": 1746,
      "ph": 1747,
      "gift": 1748,
      "upset": 1749,
      "jar": 1750,
      "lonely": 1751,
      "pla": 1752,
      "street": 1753,
      "belong": 1754,
      "dist": 1755,
      "secret": 1756,
      "wish": 1757,
      "##oun": 1758,
      "des": 1759,
      "##ost": 1760,
      "purp": 1761,
      "fence": 1762,
      "##ountain": 1763,
      "inv": 1764,
      "soup": 1765,
      "wise": 1766,
      "nearby": 1767,
      "exploring": 1768,
      "shook": 1769,
      "nothing": 1770,
      "moved": 1771,
      "de": 1772,
      "sammy": 1773,
      "naught": 1774,
      "bring": 1775,
      "naughty": 1776,
      "shop": 1777,
      "stars": 1778,
      "##fused": 1779,
      "taking": 1780,
      "##bow": 1781,
      "sunny": 1782,
      "bat": 1783,
      "##ol": 1784,
      "##yard": 1785,
      "caught": 1786,
      "drink": 1787,
      "##ward": 1788,
      "purple": 1789,
      "rocks": 1790,
      "backyard": 1791,
      "mil": 1792,
      "seemed": 1793,
      "relie": 1794,
      "whenever": 1795,
      "resp": 1796,
      "dropped": 1797,
      "##ughter": 1798,
      "ima": 1799,
      "orange": 1800,
      "mail": 1801,
      "though": 1802,
      "bucket": 1803,
      "##adow": 1804,
      "mitt": 1805,
      "swam": 1806,
      "##cing": 1807,
      "##sy": 1808,
      "cow": 1809,
      "past": 1810,
      "##ped": 1811,
      "shapes": 1812,
      "##ts": 1813,
      "rainbow": 1814,
      "##ions": 1815,
      "sitting": 1816,
      "sounds": 1817,
      "woke": 1818,
      "bench": 1819,
      "##ity": 1820,
      "fit": 1821,
      "boun": 1822,
      "busy": 1823,
      "wondered": 1824,
      "ob": 1825,
      "nose": 1826,
      "daughter": 1827,
      "nest": 1828,
      "pig": 1829,
      "juice": 1830,
      "##ese": 1831,
      "takes": 1832,
      "kite": 1833,
      "cou": 1834,
      "holding": 1835,
      "##col": 1836,
      "lucky": 1837,
      "key": 1838,
      "days": 1839,
      "##read": 1840,
      "part": 1841,
      "comes": 1842,
      "##bby": 1843,
      "birth": 1844,
      "arms": 1845,
      "birthday": 1846,
      "tweet": 1847,
      "cir": 1848,
      "coat": 1849,
      "round": 1850,
      "rec": 1851,
      "##ining": 1852,
      "branch": 1853,
      "relieved": 1854,
      "##raid": 1855,
      "zoom": 1856,
      "afraid": 1857,
      "driver": 1858,
      "forever": 1859,
      "##idge": 1860,
      "inter": 1861,
      "##are": 1862,
      "peace": 1863,
      "spoon": 1864,
      "##vered": 1865,
      "promise": 1866,
      "##ek": 1867,
      "cute": 1868,
      "carry": 1869,
      "jenny": 1870,
      "sick": 1871,
      "cheese": 1872,
      "hope": 1873,
      "##ours": 1874,
      "huge": 1875,
      "patient": 1876,
      "grab": 1877,
      "##ung": 1878,
      "touched": 1879,
      "##unt": 1880,
      "fing": 1881,
      "honey": 1882,
      "letter": 1883,
      "life": 1884,
      "exciting": 1885,
      "imag": 1886,
      "laughing": 1887,
      "bush": 1888,
      "onto": 1889,
      "band": 1890,
      "gigg": 1891,
      "##board": 1892,
      "creature": 1893,
      "disco": 1894,
      "bread": 1895,
      "##gged": 1896,
      "ret": 1897,
      "ig": 1898,
      "kick": 1899,
      "power": 1900,
      "shell": 1901,
      "sunsh": 1902,
      "craw": 1903,
      "mist": 1904,
      "swimming": 1905,
      "sunshine": 1906,
      "##alm": 1907,
      "inc": 1908,
      "whist": 1909,
      "cozy": 1910,
      "journey": 1911,
      "emily": 1912,
      "suc": 1913,
      "spin": 1914,
      "wra": 1915,
      "milk": 1916,
      "##ness": 1917,
      "bottle": 1918,
      "sharp": 1919,
      "watching": 1920,
      "##mm": 1921,
      "return": 1922,
      "pudd": 1923,
      "##ten": 1924,
      "eas": 1925,
      "hey": 1926,
      "##esting": 1927,
      "accidentally": 1928,
      "cave": 1929,
      "shout": 1930,
      "##pt": 1931,
      "##ian": 1932,
      "spo": 1933,
      "cor": 1934,
      "grandpa": 1935,
      "eg": 1936,
      "puts": 1937,
      "ann": 1938,
      "talked": 1939,
      "gather": 1940,
      "pointed": 1941,
      "##ia": 1942,
      "gives": 1943,
      "mittens": 1944,
      "ent": 1945,
      "fan": 1946,
      "smiling": 1947,
      "hor": 1948,
      "road": 1949,
      "ce": 1950,
      "anyone": 1951,
      "whis": 1952,
      "bought": 1953,
      "searched": 1954,
      "apples": 1955,
      "sandw": 1956,
      "##els": 1957,
      "act": 1958,
      "##ball": 1959,
      "meet": 1960,
      "proble": 1961,
      "problem": 1962,
      "mach": 1963,
      "##irt": 1964,
      "##ize": 1965,
      "roll": 1966,
      "spid": 1967,
      "wom": 1968,
      "these": 1969,
      "pop": 1970,
      "interesting": 1971,
      "loves": 1972,
      "kiss": 1973,
      "woman": 1974,
      "plane": 1975,
      "ducks": 1976,
      "healthy": 1977,
      "pres": 1978,
      "tasty": 1979,
      "clever": 1980,
      "##eter": 1981,
      "pile": 1982,
      "wide": 1983,
      "vill": 1984,
      "trouble": 1985,
      "##amed": 1986,
      "##sie": 1987,
      "adm": 1988,
      "##ned": 1989,
      "hon": 1990,
      "prot": 1991,
      "##aur": 1992,
      "ap": 1993,
      "crayons": 1994,
      "clouds": 1995,
      "matter": 1996,
      "##owed": 1997,
      "storm": 1998,
      "feather": 1999,
      "person": 2000,
      "pill": 2001,
      "##ont": 2002,
      "rose": 2003,
      "snowman": 2004,
      "path": 2005,
      "which": 2006,
      "##round": 2007,
      "##fted": 2008,
      "rope": 2009,
      "##ub": 2010,
      "##cer": 2011,
      "##fortable": 2012,
      "shining": 2013,
      "zoo": 2014,
      "smelled": 2015,
      "front": 2016,
      "val": 2017,
      "button": 2018,
      "pract": 2019,
      "bubble": 2020,
      "jake": 2021,
      "spotted": 2022,
      "saf": 2023,
      "minut": 2024,
      "screamed": 2025,
      "present": 2026,
      "mud": 2027,
      "snack": 2028,
      "organ": 2029,
      "##ching": 2030,
      "ash": 2031,
      "rob": 2032,
      "##eb": 2033,
      "danced": 2034,
      "sur": 2035,
      "puzz": 2036,
      "teach": 2037,
      "##dge": 2038,
      "cheer": 2039,
      "quest": 2040,
      "appeared": 2041,
      "bark": 2042,
      "thin": 2043,
      "snake": 2044,
      "seat": 2045,
      "œw": 2046,
      "wild": 2047,
      "shr": 2048,
      "##isa": 2049,
      "gently": 2050,
      "lovely": 2051,
      "##ular": 2052,
      "answer": 2053,
      "asleep": 2054,
      "giant": 2055,
      "horse": 2056,
      "char": 2057,
      "tear": 2058,
      "##epend": 2059,
      "wearing": 2060,
      "mind": 2061,
      "neighbor": 2062,
      "##oose": 2063,
      "places": 2064,
      "##pper": 2065,
      "goes": 2066,
      "whole": 2067,
      "##ove": 2068,
      "lisa": 2069,
      "respect": 2070,
      "confused": 2071,
      "lar": 2072,
      "corner": 2073,
      "impress": 2074,
      "med": 2075,
      "dirt": 2076,
      "splas": 2077,
      "sharing": 2078,
      "exp": 2079,
      "chick": 2080,
      "tries": 2081,
      "trip": 2082,
      "calm": 2083,
      "live": 2084,
      "##ale": 2085,
      "slid": 2086,
      "supp": 2087,
      "##ato": 2088,
      "rolled": 2089,
      "card": 2090,
      "tasted": 2091,
      "ser": 2092,
      "forgive": 2093,
      "##nic": 2094,
      "##ert": 2095,
      "##cean": 2096,
      "ocean": 2097,
      "last": 2098,
      "picnic": 2099,
      "machine": 2100,
      "tun": 2101,
      "rude": 2102,
      "drive": 2103,
      "teet": 2104,
      "true": 2105,
      "spent": 2106,
      "teeth": 2107,
      "##ssed": 2108,
      "ring": 2109,
      "spider": 2110,
      "pan": 2111,
      "furry": 2112,
      "##ee": 2113,
      "cookie": 2114,
      "phone": 2115,
      "lay": 2116,
      "##ager": 2117,
      "scar": 2118,
      "pour": 2119,
      "sal": 2120,
      "oven": 2121,
      "delight": 2122,
      "worm": 2123,
      "##fl": 2124,
      "kitty": 2125,
      "##ser": 2126,
      "##eak": 2127,
      "pretended": 2128,
      "fighting": 2129,
      "feet": 2130,
      "tomorrow": 2131,
      "protect": 2132,
      "peter": 2133,
      "faces": 2134,
      "lad": 2135,
      "##bar": 2136,
      "##unk": 2137,
      "ban": 2138,
      "helpful": 2139,
      "##umber": 2140,
      "nut": 2141,
      "wip": 2142,
      "wave": 2143,
      "##lder": 2144,
      "mountain": 2145,
      "chocol": 2146,
      "grace": 2147,
      "bell": 2148,
      "talking": 2149,
      "step": 2150,
      "shy": 2151,
      "sque": 2152,
      "ign": 2153,
      "##ones": 2154,
      "tid": 2155,
      "spread": 2156,
      "self": 2157,
      "push": 2158,
      "ant": 2159,
      "stret": 2160,
      "eager": 2161,
      "village": 2162,
      "foot": 2163,
      "remind": 2164,
      "write": 2165,
      "coin": 2166,
      "couch": 2167,
      "seek": 2168,
      "building": 2169,
      "ladder": 2170,
      "smooth": 2171,
      "bugs": 2172,
      "coo": 2173,
      "treats": 2174,
      "tool": 2175,
      "robot": 2176,
      "wore": 2177,
      "chased": 2178,
      "paw": 2179,
      "œi": 2180,
      "blew": 2181,
      "##lex": 2182,
      "embar": 2183,
      "collect": 2184,
      "embarra": 2185,
      "stir": 2186,
      "cross": 2187,
      "hiding": 2188,
      "pool": 2189,
      "waiting": 2190,
      "fred": 2191,
      "knee": 2192,
      "puddle": 2193,
      "roar": 2194,
      "finish": 2195,
      "chocolate": 2196,
      "shelf": 2197,
      "##not": 2198,
      "songs": 2199,
      "##als": 2200,
      "##ator": 2201,
      "selfish": 2202,
      "stra": 2203,
      "##scap": 2204,
      "##ife": 2205,
      "cannot": 2206,
      "banan": 2207,
      "sol": 2208,
      "string": 2209,
      "hum": 2210,
      "##llie": 2211,
      "##ult": 2212,
      "trust": 2213,
      "taste": 2214,
      "gen": 2215,
      "leaf": 2216,
      "sack": 2217,
      "spray": 2218,
      "œy": 2219,
      "crab": 2220,
      "net": 2221,
      "large": 2222,
      "cele": 2223,
      "tidy": 2224,
      "wash": 2225,
      "##box": 2226,
      "fixed": 2227,
      "stone": 2228,
      "celebr": 2229,
      "barked": 2230,
      "colour": 2231,
      "splash": 2232,
      "cloth": 2233,
      "peaceful": 2234,
      "uni": 2235,
      "##umpy": 2236,
      "##izz": 2237,
      "moon": 2238,
      "jung": 2239,
      "jungle": 2240,
      "honest": 2241,
      "johnny": 2242,
      "deter": 2243,
      "missed": 2244,
      "shirt": 2245,
      "##iger": 2246,
      "alice": 2247,
      "jumping": 2248,
      "gray": 2249,
      "##oin": 2250,
      "determ": 2251,
      "int": 2252,
      "##mmer": 2253,
      "embarrassed": 2254,
      "forward": 2255,
      "landed": 2256,
      "decor": 2257,
      "neckl": 2258,
      "necklace": 2259,
      "rex": 2260,
      "##ail": 2261,
      "tv": 2262,
      "##ass": 2263,
      "ber": 2264,
      "disappoin": 2265,
      "hears": 2266,
      "success": 2267,
      "sticks": 2268,
      "carrots": 2269,
      "bal": 2270,
      "creative": 2271,
      "emp": 2272,
      "alm": 2273,
      "meadow": 2274,
      "knocked": 2275,
      "##ying": 2276,
      "almost": 2277,
      "veget": 2278,
      "gener": 2279,
      "vegetable": 2280,
      "##airs": 2281,
      "sour": 2282,
      "stood": 2283,
      "gas": 2284,
      "hur": 2285,
      "meant": 2286,
      "fear": 2287,
      "legs": 2288,
      "##elly": 2289,
      "whistle": 2290,
      "tightly": 2291,
      "breath": 2292,
      "ashamed": 2293,
      "plate": 2294,
      "lem": 2295,
      "pillow": 2296,
      "empty": 2297,
      "grew": 2298,
      "tells": 2299,
      "##dle": 2300,
      "av": 2301,
      "gold": 2302,
      "##gy": 2303,
      "mir": 2304,
      "sheep": 2305,
      "##ground": 2306,
      "##ush": 2307,
      "##ope": 2308,
      "understood": 2309,
      "clear": 2310,
      "carried": 2311,
      "hours": 2312,
      "##den": 2313,
      "yelled": 2314,
      "disappointed": 2315,
      "save": 2316,
      "police": 2317,
      "##ime": 2318,
      "jew": 2319,
      "pay": 2320,
      "nods": 2321,
      "snacks": 2322,
      "##ustr": 2323,
      "##vous": 2324,
      "myster": 2325,
      "##ital": 2326,
      "frustr": 2327,
      "leo": 2328,
      "kitten": 2329,
      "chew": 2330,
      "block": 2331,
      "sparkly": 2332,
      "hosp": 2333,
      "poor": 2334,
      "pizz": 2335,
      "ship": 2336,
      "prince": 2337,
      "##ets": 2338,
      "hospital": 2339,
      "standing": 2340,
      "wolf": 2341,
      "rad": 2342,
      "line": 2343,
      "pin": 2344,
      "bored": 2345,
      "hidden": 2346,
      "generous": 2347,
      "knowing": 2348,
      "##cles": 2349,
      "taught": 2350,
      "glass": 2351,
      "blow": 2352,
      "liz": 2353,
      "##urse": 2354,
      "easy": 2355,
      "scarf": 2356,
      "jelly": 2357,
      "pri": 2358,
      "minutes": 2359,
      "##body": 2360,
      "plants": 2361,
      "returned": 2362,
      "polite": 2363,
      "group": 2364,
      "mysterious": 2365,
      "waves": 2366,
      "bedroom": 2367,
      "pizza": 2368,
      "pir": 2369,
      "wis": 2370,
      "##ected": 2371,
      "shore": 2372,
      "sighed": 2373,
      "spicy": 2374,
      "frustrated": 2375,
      "seed": 2376,
      "##ork": 2377,
      "##iff": 2378,
      "determined": 2379,
      "class": 2380,
      "sco": 2381,
      "thankful": 2382,
      "puzzle": 2383,
      "powerful": 2384,
      "susie": 2385,
      "reg": 2386,
      "sleepy": 2387,
      "ner": 2388,
      "fig": 2389,
      "##kin": 2390,
      "mid": 2391,
      "sandwich": 2392,
      "gun": 2393,
      "drew": 2394,
      "mot": 2395,
      "tick": 2396,
      "grumpy": 2397,
      "passed": 2398,
      "##ested": 2399,
      "finger": 2400,
      "spoil": 2401,
      "fancy": 2402,
      "law": 2403,
      "nervous": 2404,
      "##work": 2405,
      "mill": 2406,
      "messy": 2407,
      "lock": 2408,
      "tears": 2409,
      "feed": 2410,
      "##erp": 2411,
      "bridge": 2412,
      "gate": 2413,
      "##illar": 2414,
      "caterp": 2415,
      "##ird": 2416,
      "caterpillar": 2417,
      "van": 2418,
      "sold": 2419,
      "hang": 2420,
      "kissed": 2421,
      "closet": 2422,
      "##osaur": 2423,
      "œth": 2424,
      "excite": 2425,
      "dinosaur": 2426,
      "gathered": 2427,
      "##uce": 2428,
      "que": 2429,
      "##ote": 2430,
      "escap": 2431,
      "flag": 2432,
      "bubbles": 2433,
      "sciss": 2434,
      "whisper": 2435,
      "yourself": 2436,
      "scissors": 2437,
      "##lo": 2438,
      "working": 2439,
      "bill": 2440,
      "answered": 2441,
      "ug": 2442,
      "##sel": 2443,
      "often": 2444,
      "drop": 2445,
      "cries": 2446,
      "scr": 2447,
      "hopping": 2448,
      "chest": 2449,
      "twirl": 2450,
      "##era": 2451,
      "##selves": 2452,
      "deer": 2453,
      "##oop": 2454,
      "##pack": 2455,
      "ugly": 2456,
      "cand": 2457,
      "##flower": 2458,
      "##mb": 2459,
      "burn": 2460,
      "fil": 2461,
      "##ensive": 2462,
      "expensive": 2463,
      "excitement": 2464,
      "lit": 2465,
      "middle": 2466,
      "saved": 2467,
      "##ina": 2468,
      "taken": 2469,
      "leg": 2470,
      "sug": 2471,
      "mel": 2472,
      "wagged": 2473,
      "crown": 2474,
      "pleased": 2475,
      "ones": 2476,
      "spend": 2477,
      "boring": 2478,
      "##oof": 2479,
      "##hy": 2480,
      "picks": 2481,
      "##ax": 2482,
      "bobby": 2483,
      "boss": 2484,
      "asking": 2485,
      "jog": 2486,
      "tent": 2487,
      "vase": 2488,
      "sugar": 2489,
      "##illed": 2490,
      "brush": 2491,
      "tie": 2492,
      "queen": 2493,
      "##astic": 2494,
      "dancing": 2495,
      "vegetables": 2496,
      "##ual": 2497,
      "fine": 2498,
      "##ates": 2499,
      "lift": 2500,
      "number": 2501,
      "giggled": 2502,
      "stuff": 2503,
      "rocket": 2504,
      "esp": 2505,
      "##ecially": 2506,
      "especially": 2507,
      "cage": 2508,
      "clown": 2509,
      "mistake": 2510,
      "flut": 2511,
      "##ud": 2512,
      "gets": 2513,
      "##itter": 2514,
      "##light": 2515,
      "comfortable": 2516,
      "test": 2517,
      "packed": 2518,
      "jam": 2519,
      "press": 2520,
      "wander": 2521,
      "bye": 2522,
      "knight": 2523,
      "lying": 2524,
      "medic": 2525,
      "sweetie": 2526,
      "##iv": 2527,
      "##ose": 2528,
      "sight": 2529,
      "fake": 2530,
      "fruits": 2531,
      "eggs": 2532,
      "dest": 2533,
      "drum": 2534,
      "##iness": 2535,
      "lemon": 2536,
      "pus": 2537,
      "mandy": 2538,
      "glue": 2539,
      "medicine": 2540,
      "elder": 2541,
      "pray": 2542,
      "moving": 2543,
      "##ror": 2544,
      "drawing": 2545,
      "walks": 2546,
      "distance": 2547,
      "clap": 2548,
      "bone": 2549,
      "yog": 2550,
      "bake": 2551,
      "splashed": 2552,
      "week": 2553,
      "##aff": 2554,
      "rich": 2555,
      "change": 2556,
      "aunt": 2557,
      "dogs": 2558,
      "lead": 2559,
      "fold": 2560,
      "smelly": 2561,
      "disappeared": 2562,
      "##yal": 2563,
      "chir": 2564,
      "gar": 2565,
      "feathers": 2566,
      "match": 2567,
      "become": 2568,
      "moms": 2569,
      "add": 2570,
      "father": 2571,
      "mic": 2572,
      "fis": 2573,
      "lazy": 2574,
      "elderly": 2575,
      "mov": 2576,
      "##itch": 2577,
      "lose": 2578,
      "pete": 2579,
      "licked": 2580,
      "calling": 2581,
      "rid": 2582,
      "penny": 2583,
      "shoot": 2584,
      "cri": 2585,
      "playground": 2586,
      "bathroom": 2587,
      "incred": 2588,
      "weak": 2589,
      "exam": 2590,
      "horn": 2591,
      "body": 2592,
      "?\".": 2593,
      "yours": 2594,
      "aw": 2595,
      "questions": 2596,
      "boys": 2597,
      "wrote": 2598,
      "mirror": 2599,
      "loyal": 2600,
      "noisy": 2601,
      "nod": 2602,
      "adventur": 2603,
      "##omed": 2604,
      "sugg": 2605,
      "tiger": 2606,
      "##ory": 2607,
      "wheel": 2608,
      "ellie": 2609,
      "check": 2610,
      "skipped": 2611,
      "ter": 2612,
      "dish": 2613,
      "lamp": 2614,
      "famous": 2615,
      "ind": 2616,
      "glow": 2617,
      "##hip": 2618,
      "sell": 2619,
      "dig": 2620,
      "##ond": 2621,
      "tape": 2622,
      "##land": 2623,
      "ext": 2624,
      "rare": 2625,
      "##ging": 2626,
      "thanks": 2627,
      "relax": 2628,
      "soap": 2629,
      "ang": 2630,
      "stones": 2631,
      "ord": 2632,
      "ruined": 2633,
      "covered": 2634,
      "##ination": 2635,
      "incredible": 2636,
      "map": 2637,
      "figure": 2638,
      "content": 2639,
      "swan": 2640,
      "drank": 2641,
      "shows": 2642,
      "juicy": 2643,
      "balls": 2644,
      "measure": 2645,
      "team": 2646,
      "sailed": 2647,
      "##ots": 2648,
      "##zed": 2649,
      "##ately": 2650,
      "straw": 2651,
      "decide": 2652,
      "ella": 2653,
      "turt": 2654,
      "realised": 2655,
      "##umbled": 2656,
      "barn": 2657,
      "discovered": 2658,
      "##ti": 2659,
      "borrow": 2660,
      "coins": 2661,
      "those": 2662,
      "needs": 2663,
      "##aw": 2664,
      "bella": 2665,
      "chicken": 2666,
      "mod": 2667,
      "joke": 2668,
      "mana": 2669,
      "towel": 2670,
      "cleaned": 2671,
      "##eed": 2672,
      "extra": 2673,
      "branches": 2674,
      "board": 2675,
      "##ating": 2676,
      "motor": 2677,
      "balance": 2678,
      "adventurous": 2679,
      "mighty": 2680,
      "diffic": 2681,
      "##asing": 2682,
      "sadly": 2683,
      "offered": 2684,
      "##port": 2685,
      "ge": 2686,
      "dol": 2687,
      "dolph": 2688,
      "lifted": 2689,
      "colourful": 2690,
      "snugg": 2691,
      "##keep": 2692,
      "frown": 2693,
      "eye": 2694,
      "thick": 2695,
      "tag": 2696,
      "guess": 2697,
      "toug": 2698,
      "bobo": 2699,
      "difficult": 2700,
      "##ron": 2701,
      "organized": 2702,
      "cover": 2703,
      "unique": 2704,
      "bottom": 2705,
      "jeal": 2706,
      "jealous": 2707,
      "fright": 2708,
      "happening": 2709,
      "weird": 2710,
      "learning": 2711,
      "knife": 2712,
      "hose": 2713,
      "island": 2714,
      "mrs": 2715,
      "kindness": 2716,
      "##izzy": 2717,
      "sil": 2718,
      "four": 2719,
      "##cil": 2720,
      "garage": 2721,
      "managed": 2722,
      "word": 2723,
      "smoke": 2724,
      "bald": 2725,
      "hurts": 2726,
      "pencil": 2727,
      "##lies": 2728,
      "##imed": 2729,
      "##ges": 2730,
      "wand": 2731,
      "circle": 2732,
      "zip": 2733,
      "squee": 2734,
      "dave": 2735,
      "cost": 2736,
      "desig": 2737,
      "crawled": 2738,
      "saying": 2739,
      "arg": 2740,
      "balloons": 2741,
      "coco": 2742,
      "uncle": 2743,
      "hunt": 2744,
      "shake": 2745,
      "compet": 2746,
      "chase": 2747,
      "tough": 2748,
      "berries": 2749,
      "dizzy": 2750,
      "pointing": 2751,
      "##ready": 2752,
      "bur": 2753,
      "search": 2754,
      "jewel": 2755,
      "##ject": 2756,
      "##olog": 2757,
      "favour": 2758,
      "##ured": 2759,
      "whale": 2760,
      "##imp": 2761,
      "##illi": 2762,
      "louder": 2763,
      "turtle": 2764,
      "tweety": 2765,
      "apolog": 2766,
      "pump": 2767,
      "added": 2768,
      "##mo": 2769,
      "##itar": 2770,
      "guitar": 2771,
      "unus": 2772,
      "norm": 2773,
      "fool": 2774,
      "harder": 2775,
      "##keeper": 2776,
      "already": 2777,
      "edge": 2778,
      "birdie": 2779,
      "spun": 2780,
      "libr": 2781,
      "strawber": 2782,
      "valu": 2783,
      "unusual": 2784,
      "buzz": 2785,
      "##head": 2786,
      "##ddy": 2787,
      "favourite": 2788,
      "pear": 2789,
      "hero": 2790,
      "enjoying": 2791,
      "ref": 2792,
      "##rage": 2793,
      "record": 2794,
      "hats": 2795,
      "cheerful": 2796,
      "trucks": 2797,
      "belonged": 2798,
      "wrapped": 2799,
      "giving": 2800,
      "excitedly": 2801,
      "wake": 2802,
      "trunk": 2803,
      "flash": 2804,
      "impressed": 2805,
      "##oc": 2806,
      "banana": 2807,
      "sword": 2808,
      "grown": 2809,
      "market": 2810,
      "normal": 2811,
      "choose": 2812,
      "pil": 2813,
      "laughs": 2814,
      "##ps": 2815,
      "soph": 2816,
      "##anged": 2817,
      "brilli": 2818,
      "harm": 2819,
      "bossy": 2820,
      "ears": 2821,
      "terri": 2822,
      "loudly": 2823,
      "##uct": 2824,
      "brilliant": 2825,
      "scare": 2826,
      "goat": 2827,
      "pip": 2828,
      "stri": 2829,
      "proudly": 2830,
      "boxes": 2831,
      "pee": 2832,
      "buttons": 2833,
      "##nda": 2834,
      "painting": 2835,
      "circles": 2836,
      "##ilt": 2837,
      "escape": 2838,
      "brothers": 2839,
      "##ature": 2840,
      "##ara": 2841,
      "dreamed": 2842,
      "frightened": 2843,
      "against": 2844,
      "skin": 2845,
      "cab": 2846,
      "anc": 2847,
      "invited": 2848,
      "##alk": 2849,
      "helps": 2850,
      "cudd": 2851,
      "acce": 2852,
      "happiness": 2853,
      "ancient": 2854,
      "depend": 2855,
      "study": 2856,
      "sof": 2857,
      "suit": 2858,
      "means": 2859,
      "stubb": 2860,
      "safely": 2861,
      "snee": 2862,
      "##ym": 2863,
      "clay": 2864,
      "lola": 2865,
      "valuable": 2866,
      "stubborn": 2867,
      "slipped": 2868,
      "log": 2869,
      "cabin": 2870,
      "##fast": 2871,
      "shark": 2872,
      "crayon": 2873,
      "stream": 2874,
      "cart": 2875,
      "breakfast": 2876,
      "successful": 2877,
      "walls": 2878,
      "##akes": 2879,
      "##ouses": 2880,
      "dreams": 2881,
      "son": 2882,
      "##edient": 2883,
      "foolish": 2884,
      "lean": 2885,
      "fier": 2886,
      "cher": 2887,
      "fat": 2888,
      "##orge": 2889,
      "knows": 2890,
      "fridge": 2891,
      "nemo": 2892,
      "falls": 2893,
      "space": 2894,
      "shape": 2895,
      "fierce": 2896,
      "nicely": 2897,
      "##ha": 2898,
      "cro": 2899,
      "tomato": 2900,
      "shadow": 2901,
      "nosy": 2902,
      "dead": 2903,
      "rough": 2904,
      "movie": 2905,
      "city": 2906,
      "corn": 2907,
      "houses": 2908,
      "icy": 2909,
      "delicate": 2910,
      "office": 2911,
      "obedient": 2912,
      "competit": 2913,
      "mem": 2914,
      "##ado": 2915,
      "##laimed": 2916,
      "œlet": 2917,
      "rat": 2918,
      "suggested": 2919,
      "##ention": 2920,
      "wagon": 2921,
      "perform": 2922,
      "notice": 2923,
      "bounce": 2924,
      "exclaimed": 2925,
      "frag": 2926,
      "shells": 2927,
      "kinds": 2928,
      "mixed": 2929,
      "useful": 2930,
      "wiped": 2931,
      "lights": 2932,
      "poured": 2933,
      "soar": 2934,
      "##uth": 2935,
      "crack": 2936,
      "locked": 2937,
      "patch": 2938,
      "tools": 2939,
      "clock": 2940,
      "sounded": 2941,
      "egg": 2942,
      "stove": 2943,
      "explored": 2944,
      "##can": 2945,
      "##wards": 2946,
      "fre": 2947,
      "enc": 2948,
      "ducky": 2949,
      "##atter": 2950,
      "using": 2951,
      "george": 2952,
      "weal": 2953,
      "##isted": 2954,
      "times": 2955,
      "lab": 2956,
      "unlo": 2957,
      "above": 2958,
      "fountain": 2959,
      "dough": 2960,
      "print": 2961,
      "bags": 2962,
      "spoiled": 2963,
      "eng": 2964,
      "low": 2965,
      "showing": 2966,
      "œwh": 2967,
      "fragile": 2968,
      "themselves": 2969,
      "witch": 2970,
      "stumbled": 2971,
      "!\".": 2972,
      "bushes": 2973,
      "resc": 2974,
      "##dom": 2975,
      "independ": 2976,
      "fingers": 2977,
      "rep": 2978,
      "parrot": 2979,
      "thoughtful": 2980,
      "spinning": 2981,
      "dependable": 2982,
      "scrat": 2983,
      "smaller": 2984,
      "unk": 2985,
      "orig": 2986,
      "jolly": 2987,
      "playful": 2988,
      "bees": 2989,
      "cam": 2990,
      "helm": 2991,
      "raced": 2992,
      "delighted": 2993,
      "tele": 2994,
      "seem": 2995,
      "##inal": 2996,
      "earth": 2997,
      "brightly": 2998,
      "cop": 2999,
      "##ines": 3000,
      "gem": 3001,
      "steal": 3002,
      "rode": 3003,
      "enorm": 3004,
      "practice": 3005,
      "handed": 3006,
      "enormous": 3007,
      "roof": 3008,
      "built": 3009,
      "acorn": 3010,
      "cleaning": 3011,
      "beep": 3012,
      "admired": 3013,
      "twig": 3014,
      "kicked": 3015,
      "counted": 3016,
      "sniff": 3017,
      "ways": 3018,
      "toby": 3019,
      "changed": 3020,
      "mike": 3021,
      "original": 3022,
      "bitter": 3023,
      "##corn": 3024,
      "shone": 3025,
      "popcorn": 3026,
      "reminded": 3027,
      "independent": 3028,
      "hammer": 3029,
      "angel": 3030,
      "ol": 3031,
      "beak": 3032,
      "##ience": 3033,
      "œyes": 3034,
      "loll": 3035,
      "bean": 3036,
      "hoop": 3037,
      "unkn": 3038,
      "dove": 3039,
      "yet": 3040,
      "whispered": 3041,
      "##ither": 3042,
      "serious": 3043,
      "solve": 3044,
      "umb": 3045,
      "cone": 3046,
      "umbre": 3047,
      "tunn": 3048,
      "chose": 3049,
      "guard": 3050,
      "##anut": 3051,
      "peanut": 3052,
      "allowed": 3053,
      "dust": 3054,
      "hairy": 3055,
      "##ony": 3056,
      "mis": 3057,
      "stronger": 3058,
      "tummy": 3059,
      "potato": 3060,
      "yuck": 3061,
      "##ipop": 3062,
      "lollipop": 3063,
      "moder": 3064,
      "terrible": 3065,
      "sauce": 3066,
      "half": 3067,
      "brace": 3068,
      "boats": 3069,
      "unknown": 3070,
      "salad": 3071,
      "##erry": 3072,
      "painted": 3073,
      "bracelet": 3074,
      "pumpkin": 3075,
      "##ict": 3076,
      "joey": 3077,
      "##iable": 3078,
      "##pid": 3079,
      "finding": 3080,
      "toast": 3081,
      "wrap": 3082,
      "picking": 3083,
      "reliable": 3084,
      "leaving": 3085,
      "##under": 3086,
      "gasped": 3087,
      "clum": 3088,
      "joined": 3089,
      "strugg": 3090,
      "thinking": 3091,
      "bump": 3092,
      "compa": 3093,
      "tank": 3094,
      "post": 3095,
      "hay": 3096,
      "tor": 3097,
      "##iew": 3098,
      "sink": 3099,
      "stupid": 3100,
      "##inary": 3101,
      "thunder": 3102,
      "barber": 3103,
      "##het": 3104,
      "metal": 3105,
      "costum": 3106,
      "spring": 3107,
      "goose": 3108,
      "diam": 3109,
      "diamond": 3110,
      "dolphin": 3111,
      "ing": 3112,
      "##uring": 3113,
      "##robe": 3114,
      "view": 3115,
      "rubb": 3116,
      "##tern": 3117,
      "modern": 3118,
      "kim": 3119,
      "pirate": 3120,
      "forth": 3121,
      "##aghet": 3122,
      "##aghetti": 3123,
      "stamp": 3124,
      "spaghetti": 3125,
      "advice": 3126,
      "regular": 3127,
      "cheap": 3128,
      "flex": 3129,
      "kay": 3130,
      "paul": 3131,
      "wealthy": 3132,
      "rub": 3133,
      "sleeping": 3134,
      "zeb": 3135,
      "holds": 3136,
      "marble": 3137,
      "clumsy": 3138,
      "tu": 3139,
      "friendship": 3140,
      "##gu": 3141,
      "##par": 3142,
      "create": 3143,
      "##com": 3144,
      "œwhat": 3145,
      "zebra": 3146,
      "yarn": 3147,
      "nature": 3148,
      "polly": 3149,
      "twist": 3150,
      "##ugged": 3151,
      "magn": 3152,
      "ingred": 3153,
      "ingredient": 3154,
      "searching": 3155,
      "##ipp": 3156,
      "telling": 3157,
      "stairs": 3158,
      "nobody": 3159,
      "compass": 3160,
      "rushed": 3161,
      "march": 3162,
      "##ilty": 3163,
      "guilty": 3164,
      "andy": 3165,
      "stat": 3166,
      "crazy": 3167,
      "square": 3168,
      "mask": 3169,
      "chirp": 3170,
      "sophie": 3171,
      "arrow": 3172,
      "##ations": 3173,
      "bull": 3174,
      "fu": 3175,
      "opens": 3176,
      "engine": 3177,
      "beet": 3178,
      "ita": 3179,
      "design": 3180,
      "##shion": 3181,
      "graceful": 3182,
      "œit": 3183,
      "##io": 3184,
      "super": 3185,
      "flexible": 3186,
      "driving": 3187,
      "croco": 3188,
      "shiver": 3189,
      "speed": 3190,
      "##irsty": 3191,
      "alex": 3192,
      "camera": 3193,
      "umbrella": 3194,
      "hen": 3195,
      "pebble": 3196,
      "dull": 3197,
      "carrying": 3198,
      "popular": 3199,
      "reading": 3200,
      "truth": 3201,
      "crocod": 3202,
      "washed": 3203,
      "stage": 3204,
      "doesn": 3205,
      "deliver": 3206,
      "shel": 3207,
      "##ief": 3208,
      "missing": 3209,
      "##umbers": 3210,
      "sparkled": 3211,
      "ending": 3212,
      "seeds": 3213,
      "impressive": 3214,
      "meal": 3215,
      "##illa": 3216,
      "careless": 3217,
      "library": 3218,
      "destro": 3219,
      "fresh": 3220,
      "tied": 3221,
      "comb": 3222,
      "pige": 3223,
      "imagined": 3224,
      "reward": 3225,
      "hurry": 3226,
      "handle": 3227,
      "jacket": 3228,
      "cryst": 3229,
      "dreaming": 3230,
      "prize": 3231,
      "compassion": 3232,
      "pepper": 3233,
      "shocked": 3234,
      "butterflies": 3235,
      "load": 3236,
      "##ision": 3237,
      "rubbed": 3238,
      "##apped": 3239,
      "ingredients": 3240,
      "swe": 3241,
      "bigg": 3242,
      "encou": 3243,
      "##fish": 3244,
      "##anger": 3245,
      "œleta": 3246,
      "enth": 3247,
      "mole": 3248,
      "pattern": 3249,
      "##ibb": 3250,
      "poppy": 3251,
      "early": 3252,
      "stranger": 3253,
      "flashlight": 3254,
      "envel": 3255,
      "thirsty": 3256,
      "fork": 3257,
      "agree": 3258,
      "wheels": 3259,
      "persist": 3260,
      "charl": 3261,
      "desk": 3262,
      "##usi": 3263,
      "wire": 3264,
      "enthusi": 3265,
      "numbers": 3266,
      "gum": 3267,
      "order": 3268,
      "nurse": 3269,
      "mailbox": 3270,
      "rece": 3271,
      "temp": 3272,
      "pup": 3273,
      "discover": 3274,
      "pow": 3275,
      "pengu": 3276,
      "##reen": 3277,
      "##time": 3278,
      "##ric": 3279,
      "peeked": 3280,
      "ahead": 3281,
      "bloom": 3282,
      "torn": 3283,
      "rug": 3284,
      "spilled": 3285,
      "surf": 3286,
      "humble": 3287,
      "##up": 3288,
      "cere": 3289,
      "wing": 3290,
      "comput": 3291,
      "env": 3292,
      "stops": 3293,
      "object": 3294,
      "towers": 3295,
      "##bled": 3296,
      "sunflower": 3297,
      "sorts": 3298,
      "anx": 3299,
      "bent": 3300,
      "intell": 3301,
      "intellig": 3302,
      "counting": 3303,
      "cooking": 3304,
      "lau": 3305,
      "ja": 3306,
      "warned": 3307,
      "windows": 3308,
      "uncom": 3309,
      "spoke": 3310,
      "pale": 3311,
      "note": 3312,
      "uncomfortable": 3313,
      "placed": 3314,
      "travel": 3315,
      "##iches": 3316,
      "value": 3317,
      "beetle": 3318,
      "dea": 3319,
      "scale": 3320,
      "pant": 3321,
      "shut": 3322,
      "statue": 3323,
      "badly": 3324,
      "anxious": 3325,
      "deaf": 3326,
      "older": 3327,
      "compl": 3328,
      "slides": 3329,
      "mush": 3330,
      "scoot": 3331,
      "##rop": 3332,
      "growing": 3333,
      "biggest": 3334,
      "stack": 3335,
      "flute": 3336,
      "couldna": 3337,
      "complet": 3338,
      "celebrate": 3339,
      "raven": 3340,
      "tunnel": 3341,
      "nail": 3342,
      "crocodile": 3343,
      "scatter": 3344,
      "univer": 3345,
      "aid": 3346,
      "gh": 3347,
      "ghost": 3348,
      "cupboard": 3349,
      "harmless": 3350,
      "beauty": 3351,
      "crane": 3352,
      "sofa": 3353,
      "matt": 3354,
      "ot": 3355,
      "gloom": 3356,
      "perm": 3357,
      "exper": 3358,
      "fort": 3359,
      "muff": 3360,
      "flour": 3361,
      "quack": 3362,
      "persistent": 3363,
      "gifted": 3364,
      "trick": 3365,
      "tur": 3366,
      "charming": 3367,
      "yaw": 3368,
      "jumps": 3369,
      "pony": 3370,
      "hung": 3371,
      "skip": 3372,
      "si": 3373,
      "cereal": 3374,
      "courage": 3375,
      "refused": 3376,
      "pretending": 3377,
      "##een": 3378,
      "neat": 3379,
      "track": 3380,
      "han": 3381,
      "yay": 3382,
      "crystal": 3383,
      "names": 3384,
      "curt": 3385,
      "oct": 3386,
      "base": 3387,
      "triang": 3388,
      "sandy": 3389,
      "##opus": 3390,
      "octopus": 3391,
      "sandwiches": 3392,
      "##ices": 3393,
      "vi": 3394,
      "destroy": 3395,
      "spi": 3396,
      "ordinary": 3397,
      "camp": 3398,
      "snuggled": 3399,
      "curtain": 3400,
      "sett": 3401,
      "chasing": 3402,
      "question": 3403,
      "pian": 3404,
      "collar": 3405,
      "send": 3406,
      "crawl": 3407,
      "##used": 3408,
      "##pers": 3409,
      "envelope": 3410,
      "blueber": 3411,
      "drawer": 3412,
      "rules": 3413,
      "computer": 3414,
      "lively": 3415,
      "##ses": 3416,
      "mushroom": 3417,
      "bri": 3418,
      "carto": 3419,
      "gloomy": 3420,
      "repe": 3421,
      "intelligent": 3422,
      "ignor": 3423,
      "piano": 3424,
      "lizard": 3425,
      "shaking": 3426,
      "needle": 3427,
      "package": 3428,
      "vroom": 3429,
      "hunter": 3430,
      "œthat": 3431,
      "helmet": 3432,
      "##aches": 3433,
      "parade": 3434,
      "alert": 3435,
      "creatures": 3436,
      "fireman": 3437,
      "phot": 3438,
      "##ocer": 3439,
      "five": 3440,
      "twirled": 3441,
      "attract": 3442,
      "thief": 3443,
      "##stri": 3444,
      "seal": 3445,
      "miser": 3446,
      "station": 3447,
      "soldier": 3448,
      "miserable": 3449,
      "ostri": 3450,
      "henry": 3451,
      "ignorant": 3452,
      "buddy": 3453,
      "disg": 3454,
      "disgust": 3455,
      "brownie": 3456,
      "jet": 3457,
      "task": 3458,
      "anywhere": 3459,
      "bicy": 3460,
      "##ceed": 3461,
      "dug": 3462,
      "gir": 3463,
      "tooth": 3464,
      "club": 3465,
      "carp": 3466,
      "annie": 3467,
      "ener": 3468,
      "trap": 3469,
      "cap": 3470,
      "charlie": 3471,
      "wishes": 3472,
      "turkey": 3473,
      "##cond": 3474,
      "pasta": 3475,
      "vide": 3476,
      "second": 3477,
      "##iest": 3478,
      "led": 3479,
      "shine": 3480,
      "cricket": 3481,
      "chu": 3482,
      "radio": 3483,
      "everyday": 3484,
      "screen": 3485,
      "stickers": 3486,
      "bandage": 3487,
      "cocoa": 3488,
      "##cut": 3489,
      "helpless": 3490,
      "cube": 3491,
      "trash": 3492,
      "sin": 3493,
      "bounced": 3494,
      "giraff": 3495,
      "papa": 3496,
      "pigeon": 3497,
      "jeep": 3498,
      "chubby": 3499,
      "leash": 3500,
      "##ith": 3501,
      "otter": 3502,
      "practiced": 3503,
      "letters": 3504,
      "stretch": 3505,
      "chance": 3506,
      "attractive": 3507,
      "compassionate": 3508,
      "impat": 3509,
      "thread": 3510,
      "##gie": 3511,
      "stirred": 3512,
      "##keys": 3513,
      "jerry": 3514,
      "stretched": 3515,
      "pun": 3516,
      "##urb": 3517,
      "ten": 3518,
      "##heart": 3519,
      "gor": 3520,
      "somewhere": 3521,
      "further": 3522,
      "tweetie": 3523,
      "trump": 3524,
      "broc": 3525,
      "broccol": 3526,
      "disturb": 3527,
      "decorate": 3528,
      "hipp": 3529,
      "broccoli": 3530,
      "jug": 3531,
      "##orable": 3532,
      "competitive": 3533,
      "tire": 3534,
      "waff": 3535,
      "brighter": 3536,
      "impatient": 3537,
      "case": 3538,
      "succeed": 3539,
      "steps": 3540,
      "knock": 3541,
      "respectful": 3542,
      "leop": 3543,
      "##arian": 3544,
      "sweetheart": 3545,
      "troubled": 3546,
      "candle": 3547,
      "era": 3548,
      "mug": 3549,
      "lilly": 3550,
      "pressed": 3551,
      "spir": 3552,
      "attic": 3553,
      "itself": 3554,
      "allig": 3555,
      "##noon": 3556,
      "afternoon": 3557,
      "restless": 3558,
      "quar": 3559,
      "starts": 3560,
      "dess": 3561,
      "nuts": 3562,
      "disgusting": 3563,
      "##kers": 3564,
      "carpet": 3565,
      "##az": 3566,
      "adorable": 3567,
      "comfort": 3568,
      "ribb": 3569,
      "danny": 3570,
      "shoe": 3571,
      "vine": 3572,
      "##aurant": 3573,
      "anyway": 3574,
      "restaurant": 3575,
      "fearful": 3576,
      "pants": 3577,
      "shouts": 3578,
      "ostrich": 3579,
      "screw": 3580,
      "tray": 3581,
      "envious": 3582,
      "distant": 3583,
      "filthy": 3584,
      "cards": 3585,
      "summer": 3586,
      "##icop": 3587,
      "helicop": 3588,
      "helicopter": 3589,
      "monkeys": 3590,
      "enthusiastic": 3591,
      "giggle": 3592,
      "math": 3593,
      "##night": 3594,
      "trumpet": 3595,
      "hook": 3596,
      "dear": 3597,
      "zi": 3598,
      "lee": 3599,
      "por": 3600,
      "cooked": 3601,
      "ants": 3602,
      "dona": 3603,
      "poem": 3604,
      "meas": 3605,
      "harsh": 3606,
      "kang": 3607,
      "lightning": 3608,
      "paws": 3609,
      "sandbox": 3610,
      "spell": 3611,
      "##ips": 3612,
      "spirit": 3613,
      "##aroo": 3614,
      "kangaroo": 3615,
      "##case": 3616,
      "listening": 3617,
      "scooter": 3618,
      "nowhere": 3619,
      "squash": 3620,
      "belt": 3621,
      "leopard": 3622,
      "unpack": 3623,
      "pipe": 3624,
      "explain": 3625,
      "batht": 3626,
      "backpack": 3627,
      "country": 3628,
      "admire": 3629,
      "sent": 3630,
      "cows": 3631,
      "aer": 3632,
      "viol": 3633,
      "comet": 3634,
      "melt": 3635,
      "##cycle": 3636,
      "firework": 3637,
      "##opl": 3638,
      "bathtub": 3639,
      "aeropl": 3640,
      "repair": 3641,
      "speak": 3642,
      "lid": 3643,
      "maria": 3644,
      "quite": 3645,
      "barking": 3646,
      "##stairs": 3647,
      "gorilla": 3648,
      "separ": 3649,
      "mim": 3650,
      "jellyfish": 3651,
      "vol": 3652,
      "jess": 3653,
      "whiskers": 3654,
      "millie": 3655,
      "bicycle": 3656,
      "happier": 3657,
      "fle": 3658,
      "breat": 3659,
      "panda": 3660,
      "modest": 3661,
      "pilot": 3662,
      "human": 3663,
      "hed": 3664,
      "support": 3665,
      "mule": 3666,
      "stared": 3667,
      "salt": 3668,
      "message": 3669,
      "didna": 3670,
      "meat": 3671,
      "grabs": 3672,
      "yogurt": 3673,
      "hippo": 3674,
      "sort": 3675,
      "mimi": 3676,
      "kate": 3677,
      "impro": 3678,
      "oat": 3679,
      "given": 3680,
      "ur": 3681,
      "##xi": 3682,
      "batt": 3683,
      "##hood": 3684,
      "leta": 3685,
      "dessert": 3686,
      "split": 3687,
      "cats": 3688,
      "obser": 3689,
      "alligator": 3690,
      "paid": 3691,
      "wheat": 3692,
      "finds": 3693,
      "hedge": 3694,
      "harry": 3695,
      "melon": 3696,
      "violin": 3697,
      "pal": 3698,
      "##me": 3699,
      "rescue": 3700,
      "ped": 3701,
      "##ci": 3702,
      "swinging": 3703,
      "cact": 3704,
      "pulls": 3705,
      "tripped": 3706,
      "however": 3707,
      "organize": 3708,
      "size": 3709,
      "prov": 3710,
      "rice": 3711,
      "holes": 3712,
      "behave": 3713,
      "##ogn": 3714,
      "riding": 3715,
      "roared": 3716,
      "shade": 3717,
      "hall": 3718,
      "forgave": 3719,
      "pushing": 3720,
      "triangle": 3721,
      "recogn": 3722,
      "mild": 3723,
      "bin": 3724,
      "purse": 3725,
      "bikes": 3726,
      "inse": 3727,
      "sheet": 3728,
      "##hone": 3729,
      "lions": 3730,
      "tuna": 3731,
      "##ac": 3732,
      "raft": 3733,
      "sle": 3734,
      "starting": 3735,
      "haircut": 3736,
      "scold": 3737,
      "bananas": 3738,
      "sock": 3739,
      "twink": 3740,
      "brus": 3741,
      "silver": 3742,
      "œyou": 3743,
      "knot": 3744,
      "energy": 3745,
      "rod": 3746,
      "bears": 3747,
      "either": 3748,
      "cactus": 3749,
      "volcan": 3750,
      "##bul": 3751,
      "trains": 3752,
      "frowned": 3753,
      "lear": 3754,
      "seeing": 3755,
      "##chy": 3756,
      "learnt": 3757,
      "boots": 3758,
      "##aled": 3759,
      "porch": 3760,
      "jokes": 3761,
      "lend": 3762,
      "volcano": 3763,
      "chalk": 3764,
      "taxi": 3765,
      "strawberry": 3766,
      "##seum": 3767,
      "museum": 3768,
      "pole": 3769,
      "prun": 3770,
      "##ebook": 3771,
      "notebook": 3772,
      "appre": 3773,
      "ended": 3774,
      "sticker": 3775,
      "##ucked": 3776,
      "evening": 3777,
      "cel": 3778,
      "papers": 3779,
      "wallet": 3780,
      "rolling": 3781,
      "palace": 3782,
      "appreci": 3783,
      "judge": 3784,
      "imagine": 3785,
      "chain": 3786,
      "sweater": 3787,
      "ink": 3788,
      "steak": 3789,
      "pad": 3790,
      "tony": 3791,
      "comf": 3792,
      "shopkeeper": 3793,
      "reind": 3794,
      "reinde": 3795,
      "pit": 3796,
      "climbing": 3797,
      "avoc": 3798,
      "barrel": 3799,
      "sprink": 3800,
      "microp": 3801,
      "ins": 3802,
      "since": 3803,
      "shakes": 3804,
      "##chan": 3805,
      "james": 3806,
      "laund": 3807,
      "##icer": 3808,
      "rever": 3809,
      "smells": 3810,
      "##ffee": 3811,
      "##ooped": 3812,
      "resist": 3813,
      "##urch": 3814,
      "alive": 3815,
      "goal": 3816,
      "magnet": 3817,
      "trop": 3818,
      "laundry": 3819,
      "neighbour": 3820,
      "clapping": 3821,
      "coffee": 3822,
      "rh": 3823,
      "putting": 3824,
      "tube": 3825,
      "penguin": 3826,
      "softly": 3827,
      "sailor": 3828,
      "##form": 3829,
      "microphone": 3830,
      "pushes": 3831,
      "visited": 3832,
      "##iling": 3833,
      "tricks": 3834,
      "shield": 3835,
      "hive": 3836,
      "##play": 3837,
      "drawings": 3838,
      "sir": 3839,
      "airport": 3840,
      "falling": 3841,
      "shelter": 3842,
      "peek": 3843,
      "reindeer": 3844,
      "colours": 3845,
      "leaned": 3846,
      "zoomed": 3847,
      "saus": 3848,
      "shovel": 3849,
      "quarrel": 3850,
      "checked": 3851,
      "##very": 3852,
      "oy": 3853,
      "marry": 3854,
      "rhin": 3855,
      "belongs": 3856,
      "display": 3857,
      "shrimp": 3858,
      "herb": 3859,
      "disc": 3860,
      "polish": 3861,
      "winter": 3862,
      "celery": 3863,
      "ambul": 3864,
      "kat": 3865,
      "maggie": 3866,
      "avail": 3867,
      "marched": 3868,
      "dive": 3869,
      "pair": 3870,
      "grapes": 3871,
      "aeroplane": 3872,
      "loop": 3873,
      "##cast": 3874,
      "wool": 3875,
      "dishes": 3876,
      "yach": 3877,
      "planet": 3878,
      "barks": 3879,
      "##happy": 3880,
      "##uli": 3881,
      "fields": 3882,
      "elev": 3883,
      "sandcast": 3884,
      "soil": 3885,
      "trophy": 3886,
      "ambulance": 3887,
      "apologized": 3888,
      "skill": 3889,
      "hoping": 3890,
      "costume": 3891,
      "onion": 3892,
      "fisher": 3893,
      "rubber": 3894,
      "god": 3895,
      "available": 3896,
      "film": 3897,
      "unlock": 3898,
      "ske": 3899,
      "feelings": 3900,
      "##ense": 3901,
      "drops": 3902,
      "short": 3903,
      "quit": 3904,
      "men": 3905,
      "tap": 3906,
      "unhappy": 3907,
      "cord": 3908,
      "stom": 3909,
      "incl": 3910,
      "medal": 3911,
      "art": 3912,
      "yacht": 3913,
      "page": 3914,
      "eraser": 3915,
      "elevator": 3916,
      "bul": 3917,
      "basketball": 3918,
      "€“": 3919,
      "raining": 3920,
      "mechan": 3921,
      "minute": 3922,
      "mechanic": 3923,
      "baking": 3924,
      "spike": 3925,
      "flies": 3926,
      "complete": 3927,
      "perfectly": 3928,
      "##ages": 3929,
      "diary": 3930,
      "##nam": 3931,
      "hadn": 3932,
      "eagerly": 3933,
      "ray": 3934,
      "insect": 3935,
      "cardboard": 3936,
      "player": 3937,
      "fog": 3938,
      "magaz": 3939,
      "closely": 3940,
      "clara": 3941,
      "blin": 3942,
      "vend": 3943,
      "journal": 3944,
      "yoga": 3945,
      "glove": 3946,
      "smith": 3947,
      "frogs": 3948,
      "##eath": 3949,
      "disag": 3950,
      "furn": 3951,
      "##iture": 3952,
      "furniture": 3953,
      "tut": 3954,
      "church": 3955,
      "bulb": 3956,
      "tub": 3957,
      "stuffed": 3958,
      "imagination": 3959,
      "skull": 3960,
      "treasures": 3961,
      "freez": 3962,
      "cooler": 3963,
      "breaks": 3964,
      "headed": 3965,
      "bree": 3966,
      "jul": 3967,
      "lie": 3968,
      "oil": 3969,
      "factor": 3970,
      "wife": 3971,
      "coal": 3972,
      "peach": 3973,
      "golf": 3974,
      "counter": 3975,
      "mos": 3976,
      "##gen": 3977,
      "flame": 3978,
      "football": 3979,
      "knob": 3980,
      "##quit": 3981,
      "##ween": 3982,
      "mosquit": 3983,
      "between": 3984,
      "offer": 3985,
      "sunset": 3986,
      "factory": 3987,
      "switch": 3988,
      "cheek": 3989,
      "cauli": 3990,
      "boo": 3991,
      "rag": 3992,
      "painter": 3993,
      "hors": 3994,
      "##place": 3995,
      "pirates": 3996,
      "swung": 3997,
      "##ides": 3998,
      "cups": 3999,
      "motorcycle": 4000,
      "shouldn": 4001,
      "disappear": 4002,
      "mosquito": 4003,
      "##zzy": 4004,
      "##ories": 4005,
      "hotel": 4006,
      "shouting": 4007,
      "##right": 4008,
      "hut": 4009,
      "mop": 4010,
      "œn": 4011,
      "mixer": 4012,
      "ia": 4013,
      "ornam": 4014,
      "ornament": 4015,
      "blowing": 4016,
      "sung": 4017,
      "vendor": 4018,
      "soc": 4019,
      "rot": 4020,
      "skelet": 4021,
      "laser": 4022,
      "folder": 4023,
      "rele": 4024,
      "fisherman": 4025,
      "video": 4026,
      "giraffe": 4027,
      "soccer": 4028,
      "##izes": 4029,
      "heads": 4030,
      "##bol": 4031,
      "throws": 4032,
      "frame": 4033,
      "##rect": 4034,
      "created": 4035,
      "wipe": 4036,
      "greed": 4037,
      "cauliflower": 4038,
      "cable": 4039,
      "sym": 4040,
      "symbol": 4041,
      "cushion": 4042,
      "horses": 4043,
      "##angu": 4044,
      "langu": 4045,
      "attention": 4046,
      "rhinocer": 4047,
      "anch": 4048,
      "battery": 4049,
      "fishing": 4050,
      "rhinoceros": 4051,
      "popped": 4052,
      "##uc": 4053,
      "capt": 4054,
      "ax": 4055,
      "poke": 4056,
      "stud": 4057,
      "##sses": 4058,
      "accep": 4059,
      "weather": 4060,
      "œo": 4061,
      "maze": 4062,
      "jazz": 4063,
      "forgotten": 4064,
      "##render": 4065,
      "trail": 4066,
      "flea": 4067,
      "powder": 4068,
      "lives": 4069,
      "celebrated": 4070,
      "gear": 4071,
      "sneak": 4072,
      "rosie": 4073,
      "surround": 4074,
      "##rod": 4075,
      "luckily": 4076,
      "surrender": 4077,
      "waving": 4078,
      "im": 4079,
      "photo": 4080,
      "introd": 4081,
      "swamp": 4082,
      "slept": 4083,
      "kingdom": 4084,
      "iron": 4085,
      "pine": 4086,
      "##unately": 4087,
      "point": 4088,
      "sub": 4089,
      "##loo": 4090,
      "tutor": 4091,
      "encoura": 4092,
      "points": 4093,
      "tina": 4094,
      "glowing": 4095
    }
  }
}